{
  "version": "1.0",
  "truncation": null,
  "padding": null,
  "added_tokens": [
    {
      "id": 0,
      "content": "=",
      "single_word": false,
      "lstrip": false,
      "rstrip": false,
      "normalized": false,
      "special": true
    },
    {
      "id": 1,
      "content": ":",
      "single_word": false,
      "lstrip": false,
      "rstrip": false,
      "normalized": false,
      "special": true
    },
    {
      "id": 2,
      "content": ",",
      "single_word": false,
      "lstrip": false,
      "rstrip": false,
      "normalized": false,
      "special": true
    },
    {
      "id": 3,
      "content": "\"",
      "single_word": false,
      "lstrip": false,
      "rstrip": false,
      "normalized": false,
      "special": true
    },
    {
      "id": 4,
      "content": "'",
      "single_word": false,
      "lstrip": false,
      "rstrip": false,
      "normalized": false,
      "special": true
    },
    {
      "id": 5,
      "content": "(",
      "single_word": false,
      "lstrip": false,
      "rstrip": false,
      "normalized": false,
      "special": true
    },
    {
      "id": 6,
      "content": ")",
      "single_word": false,
      "lstrip": false,
      "rstrip": false,
      "normalized": false,
      "special": true
    },
    {
      "id": 7,
      "content": "[",
      "single_word": false,
      "lstrip": false,
      "rstrip": false,
      "normalized": false,
      "special": true
    },
    {
      "id": 8,
      "content": "]",
      "single_word": false,
      "lstrip": false,
      "rstrip": false,
      "normalized": false,
      "special": true
    },
    {
      "id": 9,
      "content": "{",
      "single_word": false,
      "lstrip": false,
      "rstrip": false,
      "normalized": false,
      "special": true
    },
    {
      "id": 10,
      "content": "}",
      "single_word": false,
      "lstrip": false,
      "rstrip": false,
      "normalized": false,
      "special": true
    }
  ],
  "normalizer": null,
  "pre_tokenizer": {
    "type": "Whitespace"
  },
  "post_processor": null,
  "decoder": null,
  "model": {
    "type": "BPE",
    "dropout": null,
    "unk_token": null,
    "continuing_subword_prefix": null,
    "end_of_word_suffix": null,
    "fuse_unk": false,
    "byte_fallback": false,
    "vocab": {
      "=": 0,
      ":": 1,
      ",": 2,
      "\"": 3,
      "'": 4,
      "(": 5,
      ")": 6,
      "[": 7,
      "]": 8,
      "{": 9,
      "}": 10,
      "!": 11,
      "#": 12,
      "$": 13,
      "%": 14,
      "&": 15,
      "*": 16,
      "+": 17,
      "-": 18,
      ".": 19,
      "/": 20,
      "0": 21,
      "1": 22,
      "2": 23,
      "3": 24,
      "4": 25,
      "5": 26,
      "6": 27,
      "7": 28,
      "8": 29,
      "9": 30,
      ";": 31,
      "<": 32,
      ">": 33,
      "?": 34,
      "@": 35,
      "A": 36,
      "B": 37,
      "C": 38,
      "D": 39,
      "E": 40,
      "F": 41,
      "G": 42,
      "H": 43,
      "I": 44,
      "J": 45,
      "K": 46,
      "L": 47,
      "M": 48,
      "N": 49,
      "O": 50,
      "P": 51,
      "Q": 52,
      "R": 53,
      "S": 54,
      "T": 55,
      "U": 56,
      "V": 57,
      "W": 58,
      "X": 59,
      "Y": 60,
      "Z": 61,
      "\\": 62,
      "^": 63,
      "_": 64,
      "`": 65,
      "a": 66,
      "b": 67,
      "c": 68,
      "d": 69,
      "e": 70,
      "f": 71,
      "g": 72,
      "h": 73,
      "i": 74,
      "j": 75,
      "k": 76,
      "l": 77,
      "m": 78,
      "n": 79,
      "o": 80,
      "p": 81,
      "q": 82,
      "r": 83,
      "s": 84,
      "t": 85,
      "u": 86,
      "v": 87,
      "w": 88,
      "x": 89,
      "y": 90,
      "z": 91,
      "|": 92,
      "~": 93,
      "©": 94,
      "®": 95,
      "Ó": 96,
      "‎": 97,
      "’": 98,
      "‭": 99,
      "›": 100,
      "⡰": 101,
      "⹴": 102,
      "㘱": 103,
      "㘹": 104,
      "㠹": 105,
      "㨺": 106,
      "㩴": 107,
      "䙧": 108,
      "䠺": 109,
      "䱥": 110,
      "剃": 111,
      "剤": 112,
      "却": 113,
      "慲": 114,
      "慷": 115,
      "摲": 116,
      "摹": 117,
      "敄": 118,
      "敬": 119,
      "敲": 120,
      "敳": 121,
      "整": 122,
      "桡": 123,
      "楆": 124,
      "楥": 125,
      "汥": 126,
      "湁": 127,
      "湥": 128,
      "湩": 129,
      "湯": 130,
      "潃": 131,
      "潴": 132,
      "灣": 133,
      "灭": 134,
      "牥": 135,
      "牯": 136,
      "獕": 137,
      "獡": 138,
      "瑓": 139,
      "瑬": 140,
      "瑳": 141,
      "畯": 142,
      "癥": 143,
      "睡": 144,
      "祡": 145,
      "跭": 146,
      "靓": 147,
      "뎿": 148,
      "좰": 149,
      "텔": 150,
      "": 151,
      ",,": 152,
      ",,,,": 153,
      ",,,,,,,,": 154,
      ",,,,,,,,,,,,,,,,": 155,
      "in": 156,
      "00": 157,
      "10": 158,
      "es": 159,
      "ec": 160,
      ",,,,,,,,,,,,,,,,,,,,,,,,,,,,,,,,": 161,
      "QB": 162,
      "ow": 163,
      "er": 164,
      "on": 165,
      "ind": 166,
      "AE": 167,
      "at": 168,
      "indow": 169,
      "indows": 170,
      "ro": 171,
      "AQ": 172,
      "20": 173,
      "nt": 174,
      "le": 175,
      "Windows": 176,
      "it": 177,
      "AG": 178,
      "am": 179,
      "ic": 180,
      "st": 181,
      "19": 182,
      "ess": 183,
      "or": 184,
      "ion": 185,
      "cess": 186,
      "win": 187,
      "AQQB": 188,
      "AB": 189,
      "AEE": 190,
      "em": 191,
      "AH": 192,
      "ur": 193,
      "AA": 194,
      ",,,,,,,,,,,,,,,,,,,,,,,,,,,,,,,,,,,,,,,,,,,,,,,,,,,,,,,,,,,,,,,,": 195,
      "ab": 196,
      "wB": 197,
      "18": 198,
      "Ac": 199,
      "16": 200,
      "gB": 201,
      "0000": 202,
      "ed": 203,
      "ame": 204,
      "32": 205,
      "0x": 206,
      "99": 207,
      ":\\": 208,
      "ent": 209,
      "ll": 210,
      "of": 211,
      "ity": 212,
      "ation": 213,
      "64": 214,
      "AEEA": 215,
      "ecur": 216,
      "oft": 217,
      "ecurity": 218,
      "Pro": 219,
      "soft": 220,
      "icro": 221,
      "icrosoft": 222,
      "an": 223,
      "Security": 224,
      "ect": 225,
      "og": 226,
      "bj": 227,
      "04": 228,
      "win10": 229,
      "Name": 230,
      "yst": 231,
      "ystem": 232,
      "ex": 233,
      "['": 234,
      "']": 235,
      "bject": 236,
      "ac": 237,
      "699": 238,
      "ing": 239,
      "sec": 240,
      "sec699": 241,
      "windows": 242,
      "AC": 243,
      "co": 244,
      "08": 245,
      "BAE": 246,
      "ri": 247,
      "Microsoft": 248,
      "as": 249,
      "est": 250,
      "14": 251,
      "ID": 252,
      "Process": 253,
      "22": 254,
      "ar": 255,
      "38": 256,
      "ile": 257,
      "In": 258,
      "Ad": 259,
      "exe": 260,
      "63": 261,
      "ystem32": 262,
      ",\"": 263,
      "ad": 264,
      "he": 265,
      "ge": 266,
      "al": 267,
      "05": 268,
      "1c": 269,
      "Win": 270,
      "56": 271,
      "47": 272,
      "48": 273,
      "log": 274,
      "AF": 275,
      "1904": 276,
      "vent": 277,
      "Au": 278,
      "e8": 279,
      "\",": 280,
      "IA": 281,
      "07": 282,
      "bf": 283,
      "for": 284,
      "unt": 285,
      "26": 286,
      "et": 287,
      "lab": 288,
      "dit": 289,
      "17": 290,
      "event": 291,
      "35": 292,
      "\"\"": 293,
      "eu": 294,
      "form": 295,
      "Audit": 296,
      "om": 297,
      "gA": 298,
      "erv": 299,
      "il": 300,
      "west": 301,
      "formation": 302,
      "Object": 303,
      "re": 304,
      "and": 305,
      "25": 306,
      "System32": 307,
      "46": 308,
      "49": 309,
      "AI": 310,
      "dll": 311,
      "St": 312,
      "',": 313,
      "uc": 314,
      "count": 315,
      "28": 316,
      "39": 317,
      "11": 318,
      "3e": 319,
      ",,,,,,,,,,,,,,,,,,,,,,,,,,,,,,,,,,,,,,,,,,,,,,,,,,,,,,,,,,,,,,,,,,,,,,,,,,,,,,,,,,,,,,,,,,,,,,,,,,,,,,,,,,,,,,,,,,,,,,,,,,,,,,,,": 320,
      "'],": 321,
      "90": 322,
      "en": 323,
      "QA": 324,
      "21": 325,
      "19041": 326,
      "Account": 327,
      "86": 328,
      "45": 329,
      "c3": 330,
      "is": 331,
      "f2": 332,
      "ch": 333,
      "44": 334,
      "ut": 335,
      "be": 336,
      "31": 337,
      "27": 338,
      "pe": 339,
      "df": 340,
      "24": 341,
      "to": 342,
      "bc": 343,
      "dc": 344,
      "se": 345,
      "Ab": 346,
      "ce": 347,
      ",,,": 348,
      "ACAA": 349,
      "BAG": 350,
      "age": 351,
      "de": 352,
      "ers": 353,
      "File": 354,
      "AD": 355,
      "5a": 356,
      "),": 357,
      "57": 358,
      "2022": 359,
      "1d": 360,
      "Auditing": 361,
      "able": 362,
      "IN": 363,
      "AQgB": 364,
      "6f": 365,
      "pt": 366,
      "uccess": 367,
      "ate": 368,
      "010": 369,
      "ba": 370,
      "ost": 371,
      "ype": 372,
      "::": 373,
      "WIN": 374,
      "37": 375,
      "fd": 376,
      "fa": 377,
      "Serv": 378,
      "00000000": 379,
      ",\"['": 380,
      "4a": 381,
      "8f": 382,
      "42": 383,
      "uil": 384,
      "0d": 385,
      "Com": 386,
      "AGU": 387,
      "},": 388,
      "d9": 389,
      "WIN10": 390,
      "_m": 391,
      "']\",": 392,
      "um": 393,
      "192": 394,
      "fo": 395,
      "Buil": 396,
      "AEEAS": 397,
      "fc": 398,
      "sm": 399,
      "b0": 400,
      "the": 401,
      "AZ": 402,
      "Log": 403,
      "Build": 404,
      "168": 405,
      "36": 406,
      "x86": 407,
      "e80": 408,
      "ue": 409,
      "Access": 410,
      "AdAB": 411,
      "pri": 412,
      "aw": 413,
      "if": 414,
      "0800": 415,
      "0101": 416,
      "160101": 417,
      "WinBuild": 418,
      "e_": 419,
      ",{": 420,
      "AHAA": 421,
      "winlog": 422,
      "emo": 423,
      "beat": 424,
      "Info": 425,
      "fe80": 426,
      "winlogbeat": 427,
      "x86_": 428,
      "15": 429,
      "x86_64": 430,
      "un": 431,
      "aws": 432,
      "eventlog": 433,
      "wineventlog": 434,
      "xS": 435,
      "t2": 436,
      "information": 437,
      "ami": 438,
      "Information": 439,
      "Type": 440,
      "18e8": 441,
      "265a": 442,
      "WinS": 443,
      "18e8265a": 444,
      "WinSxS": 445,
      "An": 446,
      "hell": 447,
      "364": 448,
      "ain": 449,
      "Logon": 450,
      "09": 451,
      "Comm": 452,
      "e35": 453,
      ",['": 454,
      "pp": 455,
      "AU": 456,
      "_n": 457,
      "56ad": 458,
      "31bf": 459,
      "3856ad": 460,
      "364e35": 461,
      "31bf3856ad": 462,
      "31bf3856ad364e35": 463,
      "id": 464,
      "78": 465,
      "_10": 466,
      "YQB": 467,
      "31bf3856ad364e35_10": 468,
      "51": 469,
      "lt": 470,
      "Command": 471,
      "_microsoft": 472,
      "($": 473,
      "nter": 474,
      "erS": 475,
      "AEEAR": 476,
      "one_": 477,
      "_none_": 478,
      "ule": 479,
      "AGk": 480,
      "emov": 481,
      "Id": 482,
      "lic": 483,
      "d64": 484,
      "ork": 485,
      "vile": 486,
      "23": 487,
      "Par": 488,
      "4b": 489,
      "amd64": 490,
      "AHM": 491,
      "Dat": 492,
      "ser": 493,
      "ist": 494,
      "55": 495,
      "AEIA": 496,
      "Server": 497,
      "TE": 498,
      "01": 499,
      "qu": 500,
      "0a": 501,
      "_31bf3856ad364e35_10": 502,
      "AIAA": 503,
      "1c9": 504,
      "06": 505,
      "a5": 506,
      "177": 507,
      "AHIA": 508,
      "im": 509,
      "Stor": 510,
      "wBBAE": 511,
      "serv": 512,
      "BAEEA": 513,
      "Re": 514,
      "amd64_microsoft": 515,
      "ask": 516,
      "servic": 517,
      "17763": 518,
      "AHc": 519,
      "68": 520,
      "pro": 521,
      "30": 522,
      "42f2": 523,
      "29": 524,
      "omain": 525,
      "1a": 526,
      "rat": 527,
      "']\",['": 528,
      "Domain": 529,
      "Storage": 530,
      "AcAB": 531,
      "Pow": 532,
      "Remov": 533,
      "Con": 534,
      "alue": 535,
      "edi": 536,
      "282": 537,
      "105": 538,
      "QBBAE": 539,
      "Removable": 540,
      "ff": 541,
      "Su": 542,
      "Host": 543,
      "40": 544,
      "medi": 545,
      "el": 546,
      "67": 547,
      "aQB": 548,
      "0fd": 549,
      "erShell": 550,
      "PowerShell": 551,
      "98": 552,
      "AQQBH": 553,
      "714": 554,
      "ine": 555,
      "562": 556,
      "com": 557,
      "AQQBC": 558,
      "4ab": 559,
      "7c3": 560,
      "AGc": 561,
      "si": 562,
      "</": 563,
      "art": 564,
      "2bf": 565,
      "ack": 566,
      "d6f": 567,
      "prise": 568,
      "58": 569,
      "nterprise": 570,
      "Enterprise": 571,
      "4447": 572,
      "4a48": 573,
      "7c3d9": 574,
      "19042": 575,
      "8f90": 576,
      "fc25": 577,
      "bc08": 578,
      "7c3d9fc25": 579,
      "7c3d9fc25562": 580,
      "4ab4": 581,
      "0fd7": 582,
      "medium": 583,
      "df1d": 584,
      "d6f1c9": 585,
      "714d6f1c9": 586,
      "2bf714d6f1c9": 587,
      "df1d0fd7": 588,
      "SY": 589,
      "our": 590,
      "13": 591,
      "ti": 592,
      "amet": 593,
      "3e7": 594,
      "CR": 595,
      ",,,,,,,,,,,,": 596,
      "AFE": 597,
      "625": 598,
      "system32": 599,
      "System": 600,
      "ated": 601,
      "En": 602,
      "7e": 603,
      "Subject": 604,
      "EA": 605,
      "success": 606,
      "ca": 607,
      "994": 608,
      "ew": 609,
      "d8": 610,
      "was": 611,
      "548": 612,
      "ysm": 613,
      "Mo": 614,
      "328": 615,
      "Sc": 616,
      "AEEAQ": 617,
      "478": 618,
      "2c": 619,
      "ysmon": 620,
      "QBBAG": 621,
      "Paramet": 622,
      "--": 623,
      "3b0": 624,
      "5478": 625,
      "$,": 626,
      "0x3e7": 627,
      "4994": 628,
      "a5ba": 629,
      "c30d": 630,
      "49625": 631,
      "3e3b0": 632,
      "54849625": 633,
      "328c30d": 634,
      "3e3b0328c30d": 635,
      "02": 636,
      "th": 637,
      "Success": 638,
      "0x3": 639,
      "1282": 640,
      "all": 641,
      "AEEASAB": 642,
      "f1": 643,
      "59": 644,
      "per": 645,
      "100": 646,
      "235": 647,
      "wBC": 648,
      "4663": 649,
      "PCR": 650,
      "7845": 651,
      "ZQB": 652,
      "ot": 653,
      "User": 654,
      "Ex": 655,
      "vilege": 656,
      "AEEAQQB": 657,
      "ath": 658,
      "md": 659,
      "195": 660,
      "E7": 661,
      "object": 662,
      "ble": 663,
      "Pri": 664,
      "AGw": 665,
      "ource": 666,
      "sible": 667,
      "2021": 668,
      ";;": 669,
      "gBBAE": 670,
      "min": 671,
      "gr": 672,
      "Cre": 673,
      "Se": 674,
      "SYS": 675,
      "19539": 676,
      "2357845": 677,
      "195392357845": 678,
      "us": 679,
      "AEEARwB": 680,
      "0x3E7": 681,
      "1645": 682,
      "TEM": 683,
      "SYSTEM": 684,
      "T4": 685,
      "RPCR": 686,
      "RPCRT4": 687,
      "ABBAE": 688,
      "AHQ": 689,
      "AGUA": 690,
      "ersion": 691,
      "ve": 692,
      "ABl": 693,
      "0c": 694,
      "Data": 695,
      "RAEIA": 696,
      "a3": 697,
      "9d": 698,
      "YwB": 699,
      "12": 700,
      "T19": 701,
      "cA": 702,
      "up": 703,
      "AbgB": 704,
      "oc": 705,
      "kAQQB": 706,
      "AEEAQwB": 707,
      "630": 708,
      "74": 709,
      "%%": 710,
      "AcgB": 711,
      "eb": 712,
      "mdle": 713,
      "tt": 714,
      "ice": 715,
      "f6": 716,
      "App": 717,
      "Sysmon": 718,
      "fe": 719,
      "att": 720,
      "ken": 721,
      "AEEAQgB": 722,
      "zation": 723,
      "access": 724,
      "2e": 725,
      "ript": 726,
      "sAGk": 727,
      "MA": 728,
      "sAGkAdAB": 729,
      "ull": 730,
      "vid": 731,
      "AcABsAGkAdAB": 732,
      "33": 733,
      "4c": 734,
      "Privilege": 735,
      "tion": 736,
      "quest": 737,
      "AGE": 738,
      "ua": 739,
      "0b": 740,
      "NT": 741,
      "Work": 742,
      "27T": 743,
      ",,,,,": 744,
      "wua": 745,
      "andle": 746,
      "AC0": 747,
      "__": 748,
      "uclt": 749,
      "wuauclt": 750,
      "7b": 751,
      "vider": 752,
      "but": 753,
      "BAF": 754,
      "b39": 755,
      "UAQQB": 756,
      "sv": 757,
      ",,,,,,,,,,,,,,,,,,,,,,,,,,,,,,,,,,,,,,,,,,,,,,,,": 758,
      "process": 759,
      "AZQB": 760,
      "Handle": 761,
      "ribut": 762,
      "AG8": 763,
      "To": 764,
      "03": 765,
      "a7": 766,
      "servicing": 767,
      "11T": 768,
      "Run": 769,
      "Version": 770,
      "mdleti": 771,
      "mdletization": 772,
      "Ansible": 773,
      "res": 774,
      "Provider": 775,
      "5d": 776,
      "ult": 777,
      "Cont": 778,
      "cre": 779,
      "ime": 780,
      "ass": 781,
      "gent": 782,
      "69": 783,
      "tr": 784,
      "RI": 785,
      "##": 786,
      "work": 787,
      "Att": 788,
      "2024": 789,
      "ir": 790,
      "QBC": 791,
      "empt": 792,
      "Path": 793,
      "Worker": 794,
      "value": 795,
      "stack": 796,
      "8d": 797,
      "dc2": 798,
      "87": 799,
      "ributes": 800,
      "WinR": 801,
      "servicingstack": 802,
      "New": 803,
      "servicingstack_31bf3856ad364e35_10": 804,
      "ag": 805,
      "Ti": 806,
      "Attributes": 807,
      "olic": 808,
      "YQBy": 809,
      "TiWorker": 810,
      "gram": 811,
      "sq": 812,
      "EAgent": 813,
      "WinREAgent": 814,
      ":\\$": 815,
      "ratch": 816,
      "Scratch": 817,
      "kAHM": 818,
      "27T22": 819,
      "AdwBC": 820,
      "fAHAA": 821,
      "ror": 822,
      "__c": 823,
      "Im": 824,
      "AHQAc": 825,
      "AcABsAGkAdABfAHAA": 826,
      "YQByAHQAc": 827,
      "kAHMAcABsAGkAdABfAHAA": 828,
      "kAHMAcABsAGkAdABfAHAAYQByAHQAc": 829,
      "olicy": 830,
      ",,,,,,": 831,
      "c4": 832,
      "AIAB": 833,
      "Fil": 834,
      "put": 835,
      "Wr": 836,
      "='": 837,
      "Set": 838,
      "1826": 839,
      "__cmdletization": 840,
      "94": 841,
      "sql": 842,
      "AG4": 843,
      "Start": 844,
      "QBBAGM": 845,
      "Mount": 846,
      "><": 847,
      ",,,,,,,,,,,,,,,,,,,,,,,,,,,,,,,,,,,,,,,,,,,,,,,,,,,,,,,,,,,,,,,,,,,,,,,,,,,,,,,,,,,,,,,,,,,,,,,,,,,,,,,,,,,,,,,,,,,,,,,,,,,,,,,,,,,,,,,,,,,,,,,,,,,,,,,,,,,,,,,,,,,,,,,,,,,,,,,,,,,,,,,,,,,,,,,,,,,,,,,,,,,,,,,,,,,,,,,,,,,,,,,,,,,,,,,,,,,,,,,,,,,,,,,,,,,,,,,,": 848,
      "4d": 849,
      "ith": 850,
      "AdABy": 851,
      "ey": 852,
      "li": 853,
      "Res": 854,
      ")(": 855,
      "Parameter": 856,
      "Value": 857,
      "Oper": 858,
      "AFEAQgB": 859,
      "Request": 860,
      "attempt": 861,
      "AQQBI": 862,
      "ring": 863,
      "ite": 864,
      "rule": 865,
      "ory": 866,
      "d5": 867,
      "83": 868,
      "AGs": 869,
      "minist": 870,
      "ministrat": 871,
      "token": 872,
      "TH": 873,
      "ade": 874,
      "ecut": 875,
      "34": 876,
      "od": 877,
      "AEEAW": 878,
      "88": 879,
      "LQB": 880,
      "enter": 881,
      "_none_7": 882,
      "9a": 883,
      "0x1": 884,
      "ADA": 885,
      "ay": 886,
      "2019": 887,
      "Time": 888,
      "made": 889,
      "app": 890,
      "f5": 891,
      "lication": 892,
      "AUQBC": 893,
      "c7": 894,
      "sy": 895,
      "TY": 896,
      "AUTH": 897,
      "6a": 898,
      "b1": 899,
      "ry": 900,
      "RITY": 901,
      "De": 902,
      "ORITY": 903,
      "AUTHORITY": 904,
      "ACAALQB": 905,
      "ea": 906,
      "AaQB": 907,
      "Policy": 908,
      "wB3": 909,
      "gAD": 910,
      "win19": 911,
      "108": 912,
      "Resource": 913,
      "chost": 914,
      "svchost": 915,
      "ted": 916,
      "Files": 917,
      "acenter": 918,
      "Datacenter": 919,
      "fb": 920,
      "ly": 921,
      "140": 922,
      "file": 923,
      "60": 924,
      "XQA": 925,
      "AHQA": 926,
      "Mask": 927,
      "8e": 928,
      "Accesses": 929,
      "ver": 930,
      "small": 931,
      "97": 932,
      "Write": 933,
      "ace": 934,
      "con": 935,
      "Get": 936,
      ")]": 937,
      "5f": 938,
      "81": 939,
      "52": 940,
      "abled": 941,
      "9c": 942,
      "..": 943,
      "va": 944,
      "AEI": 945,
      "sp": 946,
      "Task": 947,
      ",\"%%": 948,
      "Operation": 949,
      "\\\\": 950,
      "314": 951,
      "66": 952,
      "DC": 953,
      "AbAB": 954,
      "dAB": 955,
      "roup": 956,
      "AEEASABBAEEA": 957,
      "AGcAQgB": 958,
      "AHIAYQB": 959,
      "ms": 960,
      "not": 961,
      "AHk": 962,
      "AFM": 963,
      "Create": 964,
      "EL": 965,
      "aa": 966,
      "Program": 967,
      "Service": 968,
      "get": 969,
      "70": 970,
      "AQQBk": 971,
      "AHcAQQB": 972,
      "Add": 973,
      "ged": 974,
      "gist": 975,
      "ption": 976,
      "AR": 977,
      "Execut": 978,
      "Net": 979,
      "----": 980,
      ",-": 981,
      "PS": 982,
      "bb": 983,
      "AbwB": 984,
      "cc": 985,
      "4949": 986,
      "set": 987,
      "494951": 988,
      "108494951": 989,
      "108494951140": 990,
      "ber": 991,
      "AQQBBAG": 992,
      "__cmdletization_": 993,
      "ul": 994,
      "rol": 995,
      "lev": 996,
      "created": 997,
      "21T19": 998,
      "wA": 999,
      "Script": 1000,
      "AGM": 1001,
      "da": 1002,
      "ire": 1003,
      "Er": 1004,
      "cdf": 1005,
      "Error": 1006,
      ",,,,,,,": 1007,
      "53": 1008,
      "Rule": 1009,
      "arget": 1010,
      "()": 1011,
      "Ut": 1012,
      "AAo": 1013,
      "fault": 1014,
      "start": 1015,
      "Control": 1016,
      "ive": 1017,
      "6e": 1018,
      "1_none_": 1019,
      "ht": 1020,
      "AQQBkAEEAQgB": 1021,
      "ord": 1022,
      "os": 1023,
      "The": 1024,
      "nc": 1025,
      "type": 1026,
      "0e": 1027,
      "0x10": 1028,
      "4f": 1029,
      "null": 1030,
      "b9": 1031,
      "AbQB": 1032,
      "gAU": 1033,
      "AM": 1034,
      "gine": 1035,
      "ip": 1036,
      "Line": 1037,
      "Tr": 1038,
      "ADAAQQB": 1039,
      "ershell": 1040,
      "Image": 1041,
      "Operational": 1042,
      "5c": 1043,
      ",,,,,,,,,,,": 1044,
      "fi": 1045,
      "11T14": 1046,
      "On": 1047,
      "obj": 1048,
      "Application": 1049,
      "Regist": 1050,
      "09T19": 1051,
      "AEUAQQB": 1052,
      "name": 1053,
      "116": 1054,
      "IAb": 1055,
      "administrat": 1056,
      "QAg": 1057,
      "076": 1058,
      "user": 1059,
      "000000000000": 1060,
      "Target": 1061,
      "true": 1062,
      "SYSTEM32": 1063,
      "ech": 1064,
      "AdAByAGk": 1065,
      "4bb": 1066,
      "d0": 1067,
      "234": 1068,
      "with": 1069,
      "eQBBAE": 1070,
      "AGUAcgB": 1071,
      "ence": 1072,
      "awBBAE": 1073,
      "ER": 1074,
      "Engine": 1075,
      "05a": 1076,
      "nAEIA": 1077,
      "new": 1078,
      "Key": 1079,
      "6b": 1080,
      "Th": 1081,
      "0x10000": 1082,
      "ABBAG": 1083,
      "0x0": 1084,
      "576": 1085,
      "54": 1086,
      "538": 1087,
      "AEEASQB": 1088,
      "ProcessId": 1089,
      "a6": 1090,
      "pow": 1091,
      "3c": 1092,
      "sync": 1093,
      "ps": 1094,
      "AQQBHAGs": 1095,
      "logon": 1096,
      "f8": 1097,
      "No": 1098,
      "powershell": 1099,
      "tech": 1100,
      "Event": 1101,
      "labs": 1102,
      "synctech": 1103,
      "synctechlabs": 1104,
      "430": 1105,
      "c1": 1106,
      "b7": 1107,
      "Utc": 1108,
      "AQQBCAHM": 1109,
      "e9": 1110,
      "ProcessG": 1111,
      "UtcTime": 1112,
      "d1": 1113,
      "DAEEAQQB": 1114,
      "emp": 1115,
      "dis": 1116,
      "AAg": 1117,
      "wBy": 1118,
      "2e7e": 1119,
      "5e": 1120,
      "AFEAQQB": 1121,
      "db": 1122,
      "String": 1123,
      "5d37": 1124,
      "047": 1125,
      "24b1": 1126,
      "116c": 1127,
      "1cfe": 1128,
      "90f6": 1129,
      "57698": 1130,
      "10fa": 1131,
      "Source": 1132,
      "0757698": 1133,
      "0b90f6": 1134,
      "b39cdf": 1135,
      "2e7e1cfe": 1136,
      "0757698b39cdf": 1137,
      "0b90f62e7e1cfe": 1138,
      "0757698b39cdf10fa": 1139,
      "0b90f62e7e1cfe076": 1140,
      "Non": 1141,
      "AJ": 1142,
      "ore": 1143,
      "AEEAZ": 1144,
      "8c": 1145,
      "yAC": 1146,
      "privile": 1147,
      "Ava": 1148,
      ",,,,,,,,,": 1149,
      "600": 1150,
      "used": 1151,
      "int": 1152,
      ";;;": 1153,
      "ase": 1154,
      "482c": 1155,
      "d7": 1156,
      "par": 1157,
      "ings": 1158,
      "Ch": 1159,
      "0104": 1160,
      "Started": 1161,
      "ntdll": 1162,
      "ocal": 1163,
      "cript": 1164,
      "cod": 1165,
      "anag": 1166,
      "ched": 1167,
      "a3f2": 1168,
      "bo": 1169,
      "89": 1170,
      "16T": 1171,
      "23416": 1172,
      "bf51": 1173,
      "37a3f2": 1174,
      "f523416": 1175,
      "05a86": 1176,
      "37a3f2a3": 1177,
      "f52341605a86": 1178,
      "AQQBIAE": 1179,
      "1613": 1180,
      "2a": 1181,
      "ges": 1182,
      "Temp": 1183,
      "f7": 1184,
      "ACQA": 1185,
      "AAw": 1186,
      "Un": 1187,
      "_none_7df": 1188,
      "ca07": 1189,
      "538047": 1190,
      "1613_none_7df": 1191,
      "ca074bb": 1192,
      "538047ca074bb": 1193,
      "1613_none_7df538047ca074bb": 1194,
      "AGY": 1195,
      "Registry": 1196,
      "ls": 1197,
      "221": 1198,
      "gBh": 1199,
      "tive": 1200,
      "AHcAQgB": 1201,
      "9b": 1202,
      "058": 1203,
      "Inter": 1204,
      "Input": 1205,
      "ric": 1206,
      "so": 1207,
      "AGMA": 1208,
      "essage": 1209,
      "ession": 1210,
      "3a": 1211,
      "uid": 1212,
      "]::": 1213,
      "aQBu": 1214,
      "hen": 1215,
      "QB0": 1216,
      "indic": 1217,
      ",,,,,,,,,,,,,,": 1218,
      "Execution": 1219,
      "d6": 1220,
      "wB0": 1221,
      "State": 1222,
      "unc": 1223,
      "AAoAJ": 1224,
      "service": 1225,
      "AG8AbgB": 1226,
      "unction": 1227,
      "RAEI": 1228,
      "QBRAEIA": 1229,
      "LL": 1230,
      "AF8": 1231,
      "0AIAA": 1232,
      "group": 1233,
      "gAT": 1234,
      "By": 1235,
      "238": 1236,
      "Qu": 1237,
      "72": 1238,
      "security": 1239,
      "v1": 1240,
      "ZQBy": 1241,
      "ACAAf": 1242,
      "we": 1243,
      "ited": 1244,
      "pl": 1245,
      "AHAAdAB": 1246,
      "41": 1247,
      "AO": 1248,
      "0x100": 1249,
      "IgB": 1250,
      "wB0AHIA": 1251,
      "AGUAe": 1252,
      "estric": 1253,
      "gADAA": 1254,
      "InputObject": 1255,
      "path": 1256,
      "AHIAYQBw": 1257,
      "EAIAA": 1258,
      "ABlAGMA": 1259,
      "XwB3": 1260,
      "bAD": 1261,
      "kAGUAe": 1262,
      "wBbAD": 1263,
      "AHAAZQBy": 1264,
      "AIAAkAHMAcABsAGkAdABfAHAAYQByAHQAc": 1265,
      "AHIAYQBwAHAAZQBy": 1266,
      "ABlAGMAXwB3": 1267,
      "kAGUAeABlAGMAXwB3": 1268,
      "kAGUAeABlAGMAXwB3AHIAYQBwAHAAZQBy": 1269,
      "ates": 1270,
      "ator": 1271,
      "gBRAEIA": 1272,
      "estricted": 1273,
      "0x18": 1274,
      "))": 1275,
      "QBBAF": 1276,
      ",,,,,,,,,,": 1277,
      "are": 1278,
      "urn": 1279,
      "Sched": 1280,
      "ail": 1281,
      "ret": 1282,
      "Manag": 1283,
      "CommandLine": 1284,
      "AQgA": 1285,
      "ery": 1286,
      "eth": 1287,
      "ance": 1288,
      "line": 1289,
      "80": 1290,
      "d10": 1291,
      "active": 1292,
      "50": 1293,
      "te": 1294,
      "AEEASABBAEEAW": 1295,
      "####": 1296,
      "DLL": 1297,
      "Network": 1298,
      "alse": 1299,
      "AQQBHAGsAQQBkAEEAQgB": 1300,
      "QBBAGMAQQBCAHM": 1301,
      "QBBAGMAQQBCAHMAQQBHAGsAQQBkAEEAQgB": 1302,
      "ipe": 1303,
      "384": 1304,
      "]$": 1305,
      "Mod": 1306,
      "Encod": 1307,
      "comp": 1308,
      "AEEASQBBAEEA": 1309,
      ")(?": 1310,
      "when": 1311,
      "account": 1312,
      "false": 1313,
      "569": 1314,
      "Bg": 1315,
      "Co": 1316,
      "7c": 1317,
      "QAQQBC": 1318,
      "ethod": 1319,
      "Pack": 1320,
      "ception": 1321,
      "lo": 1322,
      "63d": 1323,
      "RuleName": 1324,
      "Profile": 1325,
      "AQQBE": 1326,
      "Des": 1327,
      "WindowsPowerShell": 1328,
      "return": 1329,
      "task": 1330,
      "06f": 1331,
      "AT": 1332,
      "145": 1333,
      "c22": 1334,
      "erSet": 1335,
      "471": 1336,
      "3e0": 1337,
      "AEEARwBV": 1338,
      "8ba": 1339,
      "26221": 1340,
      "99238": 1341,
      "2622157": 1342,
      "992382622157": 1343,
      "Pipe": 1344,
      "else": 1345,
      "276": 1346,
      "wh": 1347,
      "vert": 1348,
      "AEEAY": 1349,
      "erSetName": 1350,
      "ParameterSetName": 1351,
      "0AQQB": 1352,
      "ght": 1353,
      "82": 1354,
      "disabled": 1355,
      "bd": 1356,
      "a29": 1357,
      "sysmon": 1358,
      "667": 1359,
      "d3": 1360,
      "0xb": 1361,
      "As": 1362,
      "ExecutionPolicy": 1363,
      ",,,,,,,,,,,,,,,": 1364,
      "AHU": 1365,
      "ort": 1366,
      "'>": 1367,
      "bf4c": 1368,
      "7038": 1369,
      "fbd9": 1370,
      "43e0": 1371,
      "6c": 1372,
      "end": 1373,
      "c22a": 1374,
      "577038": 1375,
      "8ffbd9": 1376,
      "5698ffbd9": 1377,
      "06f5698ffbd9": 1378,
      "5770385f": 1379,
      "ETE": 1380,
      "51b": 1381,
      "administrative": 1382,
      "alid": 1383,
      "ap": 1384,
      "bcc": 1385,
      "AQQBIAEkAQQB": 1386,
      "AcABBAE": 1387,
      "ab2": 1388,
      "0de": 1389,
      "685": 1390,
      "wBBAEM": 1391,
      "Interactive": 1392,
      "@{": 1393,
      "gin": 1394,
      "38a": 1395,
      "ans": 1396,
      "43": 1397,
      "AYwB": 1398,
      "restricted": 1399,
      "58aa": 1400,
      "Rec": 1401,
      "659": 1402,
      "NoProfile": 1403,
      "b3": 1404,
      "1dd": 1405,
      "f1b": 1406,
      "AEEASABJ": 1407,
      "('": 1408,
      "ud": 1409,
      "104": 1410,
      "4608": 1411,
      "Unrestricted": 1412,
      "2319": 1413,
      "NonInteractive": 1414,
      "b145": 1415,
      "736": 1416,
      "6673": 1417,
      "9dda": 1418,
      "8ba1": 1419,
      "If": 1420,
      "55ba": 1421,
      "fdd5": 1422,
      "ea9dda": 1423,
      "ea9dda8d": 1424,
      "314b": 1425,
      "BA": 1426,
      "c471": 1427,
      "0c058": 1428,
      "55d10": 1429,
      "0a685": 1430,
      "c12319": 1431,
      "63d51b": 1432,
      "a2955d10": 1433,
      "bcc38a": 1434,
      "ab2bcc38a": 1435,
      "58aa1d": 1436,
      "55ba74": 1437,
      "0c05863d51b": 1438,
      "0a685ab2bcc38a": 1439,
      "c1231955ba74": 1440,
      "0c05863d51b58aa1d": 1441,
      "0a685ab2bcc38af1b": 1442,
      "host": 1443,
      "kACAA": 1444,
      "Schedul": 1445,
      "EC": 1446,
      ",,,,,,,,,,,,,,,,,,,,,,,,,,,,,,,,,,,,,,,,,,,,,,,,,,,,,,,,,,,,,,,,,,,,,,,,,,,,,,,,,,,,,,,,,,,,,,,,,,,,,,,,,,,,,,,,": 1447,
      "edCommand": 1448,
      "EncodedCommand": 1449,
      "ProcessGuid": 1450,
      "Record": 1451,
      "pd": 1452,
      "has": 1453,
      "e6": 1454,
      "ure": 1455,
      "out": 1456,
      "services": 1457,
      "93": 1458,
      "that": 1459,
      "0xd": 1460,
      "AGwAaQB": 1461,
      "ces": 1462,
      ",-,": 1463,
      "Cl": 1464,
      "65": 1465,
      ")(?)(?": 1466,
      "chan": 1467,
      "77": 1468,
      "c5": 1469,
      "AGUAYwB": 1470,
      "95": 1471,
      "Local": 1472,
      "ae": 1473,
      "space": 1474,
      "GA": 1475,
      "ABBAEcA": 1476,
      "Pipeline": 1477,
      "Trans": 1478,
      "action": 1479,
      "gAQQB": 1480,
      "Convert": 1481,
      "pers": 1482,
      "full": 1483,
      "b2c": 1484,
      "net": 1485,
      "f0": 1486,
      "WD": 1487,
      "4AGUAYwB": 1488,
      "4e": 1489,
      "Auth": 1490,
      "0x1894": 1491,
      "4660": 1492,
      "Scheduler": 1493,
      "emote": 1494,
      "Runspace": 1495,
      "awBBAEgAT": 1496,
      "QBRAEIAeQBBAE": 1497,
      "gAUQBBAGM": 1498,
      "ink": 1499,
      "mAEEASABBAEEAW": 1500,
      "QBBAGMAQQBCAHMAQQBHAGsAQQBkAEEAQgBmAEEASABBAEEAW": 1501,
      "awBBAEgATQBBAGMAQQBCAHMAQQBHAGsAQQBkAEEAQgBmAEEASABBAEEAW": 1502,
      "QBRAEIAeQBBAEgAUQBBAGM": 1503,
      "awBBAEgATQBBAGMAQQBCAHMAQQBHAGsAQQBkAEEAQgBmAEEASABBAEEAWQBRAEIAeQBBAEgAUQBBAGM": 1504,
      "Upd": 1505,
      "ansible": 1506,
      "85": 1507,
      "wall": 1508,
      "po": 1509,
      ",,,,,,,,,,,,,": 1510,
      "default": 1511,
      "Comp": 1512,
      "Chan": 1513,
      "light": 1514,
      "rom": 1515,
      "ak": 1516,
      "319": 1517,
      "requ": 1518,
      "Token": 1519,
      "Has": 1520,
      "ment": 1521,
      "ner": 1522,
      "levated": 1523,
      "ication": 1524,
      "AEEAQwBBAEEA": 1525,
      "AGgA": 1526,
      "wBBAG": 1527,
      "1b": 1528,
      "AHkAQQB": 1529,
      "AFAA": 1530,
      "73": 1531,
      "Off": 1532,
      ",,,,,,,,,,,,,,,,,,,,,,,,,,,,,,,,,,,,,,,,,,,,,,,,,,,,,,,,,,,,,,,,,,,,,,,,,,,,,,,,,,,,,,,,,,,,,,,,": 1533,
      "person": 1534,
      "base": 1535,
      "';": 1536,
      "umber": 1537,
      "irect": 1538,
      "urr": 1539,
      "irewall": 1540,
      "MAB": 1541,
      "und": 1542,
      "92": 1543,
      "privileges": 1544,
      "Firewall": 1545,
      "Descript": 1546,
      "AFUAQQB": 1547,
      "son": 1548,
      "gg": 1549,
      "DEL": 1550,
      "\"\")": 1551,
      "mod": 1552,
      "AGUAZ": 1553,
      "DELETE": 1554,
      "Function": 1555,
      "gBl": 1556,
      "ub": 1557,
      "Number": 1558,
      "no": 1559,
      "CommandType": 1560,
      "RAEIAd": 1561,
      "0x1c": 1562,
      "KAA": 1563,
      "gn": 1564,
      "ACgA": 1565,
      "--------": 1566,
      "ext": 1567,
      "apper": 1568,
      "cle": 1569,
      "Class": 1570,
      "beb": 1571,
      "200": 1572,
      "vir": 1573,
      "Flight": 1574,
      "b0e": 1575,
      "3Z": 1576,
      "814": 1577,
      "Sequ": 1578,
      "0ac": 1579,
      "')]": 1580,
      "gBJ": 1581,
      "string": 1582,
      "807": 1583,
      "Parameters": 1584,
      "ET": 1585,
      "RAEEA": 1586,
      "Sequence": 1587,
      "AQQBBAE": 1588,
      "_l": 1589,
      "param": 1590,
      "0x1c0": 1591,
      "rame": 1592,
      "0xb24": 1593,
      "0xddc": 1594,
      "remov": 1595,
      "atch": 1596,
      "privilege": 1597,
      "InFlight": 1598,
      "2d8": 1599,
      "064": 1600,
      "sole": 1601,
      "HostName": 1602,
      "1e": 1603,
      "ramework": 1604,
      "a4d": 1605,
      "Office": 1606,
      "Lif": 1607,
      "accessed": 1608,
      "KER": 1609,
      "ScriptName": 1610,
      "HostId": 1611,
      "HostVersion": 1612,
      "HostApplication": 1613,
      "EngineVersion": 1614,
      "PipelineId": 1615,
      "RunspaceId": 1616,
      "SequenceNumber": 1617,
      "1Z": 1618,
      "emb": 1619,
      "ecy": 1620,
      "ErrorRecord": 1621,
      "ecycle": 1622,
      "Lifecycle": 1623,
      "CommandName": 1624,
      "CommandPath": 1625,
      "1537": 1626,
      "Package": 1627,
      "ement": 1628,
      "ADo": 1629,
      "removed": 1630,
      "96": 1631,
      "deff": 1632,
      "18b39": 1633,
      "18b391dd": 1634,
      "NEL": 1635,
      "KERNEL": 1636,
      "2AD": 1637,
      "cor": 1638,
      "combase": 1639,
      "groups": 1640,
      "lsass": 1641,
      "7efa": 1642,
      "gA6": 1643,
      "deff7efa": 1644,
      "wAC": 1645,
      "2Z": 1646,
      "101": 1647,
      "eq": 1648,
      "283": 1649,
      "AIABb": 1650,
      "onment": 1651,
      "bbc": 1652,
      "7bc3": 1653,
      "ial": 1654,
      "Det": 1655,
      "44d": 1656,
      "vironment": 1657,
      "do": 1658,
      "9d736": 1659,
      "9b7bc3": 1660,
      "0ac9d736": 1661,
      "9b7bc30de": 1662,
      "0ac9d7369b7bc30de": 1663,
      ",,,,,,,,,,,,,,,,,,,,,,,,,,,,,,,,,,,,,,,,,,,,,,,,,,,,,,,,,,,,,,,,,,,,,,,,,,,,,,,,,,,,,,,,,,,,,,,,,,,,,,,,,,,,,,,,,,,,,,,,,,,,,,,,,,,,,,,,,,,,,,,,": 1664,
      "code": 1665,
      "059": 1666,
      "AQQBG": 1667,
      "oAUQBC": 1668,
      "eca": 1669,
      "module": 1670,
      "stud": 1671,
      "57f": 1672,
      "student": 1673,
      "04c": 1674,
      "ty": 1675,
      "require": 1676,
      "Creator": 1677,
      "elevated": 1678,
      "'-": 1679,
      "AAi": 1680,
      "b4a": 1681,
      "bwB3": 1682,
      "eld": 1683,
      "103": 1684,
      "Framework": 1685,
      "key": 1686,
      "ZwBC": 1687,
      "field": 1688,
      "Is": 1689,
      "Avast": 1690,
      "ains": 1691,
      "AXQA": 1692,
      "NET": 1693,
      "Sh": 1694,
      "bem": 1695,
      "indicates": 1696,
      "1008": 1697,
      "urrent": 1698,
      "tings": 1699,
      "AbwBu": 1700,
      "ev": 1701,
      "ee": 1702,
      "487": 1703,
      "gBnAEIA": 1704,
      "Query": 1705,
      "cb": 1706,
      "ard": 1707,
      "3118": 1708,
      "ilab": 1709,
      "AGI": 1710,
      "arn": 1711,
      "comm": 1712,
      "4936": 1713,
      "AV": 1714,
      "UID": 1715,
      "leted": 1716,
      "LM": 1717,
      "own": 1718,
      ",,,,,,,,,,,,,,,,,,,,,,,,,,,,,,,,,,,,,,,,,,,,,,,,,,,,,,,,,,,,,,,,,,,,,,,,,,,,,,,,": 1719,
      "Json": 1720,
      "Remote": 1721,
      "version": 1722,
      "ilable": 1723,
      "6594": 1724,
      "27658": 1725,
      "1007": 1726,
      "1027658": 1727,
      "314814": 1728,
      "31184936": 1729,
      "1027658064": 1730,
      "3148146594": 1731,
      "3118493602": 1732,
      "ach": 1733,
      "Default": 1734,
      "changed": 1735,
      "20T": 1736,
      "90f": 1737,
      "SeT": 1738,
      "AEEARwBr": 1739,
      "Dis": 1740,
      "a8": 1741,
      "Console": 1742,
      "76": 1743,
      "c43": 1744,
      "111c": 1745,
      "3717": 1746,
      "e4": 1747,
      "request": 1748,
      "xm": 1749,
      "1a18": 1750,
      "8717": 1751,
      "4b0e": 1752,
      "b928": 1753,
      "674b": 1754,
      "Parent": 1755,
      "b57f": 1756,
      "1a90": 1757,
      "12f2": 1758,
      "7ee9": 1759,
      "ca11": 1760,
      "053e": 1761,
      "6fb4a": 1762,
      "68b2c": 1763,
      "beb111c": 1764,
      "a4d674b": 1765,
      "bbca4d674b": 1766,
      "04c12f2": 1767,
      "37171a18": 1768,
      "053e37171a18": 1769,
      "68b2c90f": 1770,
      "beb111cc43": 1771,
      "bbca4d674b33": 1772,
      "04c12f2beb111cc43": 1773,
      "053e37171a186fb4a": 1774,
      "ens": 1775,
      "AZwBC": 1776,
      "error": 1777,
      "v4": 1778,
      "99c": 1779,
      "ethodParameter": 1780,
      "2d80": 1781,
      "wbem": 1782,
      "ABh": 1783,
      "ui": 1784,
      "1814": 1785,
      "AQQBHAEUAQQB": 1786,
      "000094": 1787,
      "resent": 1788,
      "2c0b": 1789,
      "906a": 1790,
      "gBBAEcA": 1791,
      "2d801c9": 1792,
      "181413": 1793,
      "05000094": 1794,
      "eca906a": 1795,
      "2c0beca906a": 1796,
      "2d801c905000094": 1797,
      "2c0beca906a2d801c905000094": 1798,
      "2c0beca906a2d801c905000094181413": 1799,
      "5Z": 1800,
      "ABBAEgA": 1801,
      "Action": 1802,
      "Creation": 1803,
      "This": 1804,
      "entication": 1805,
      "99c9a": 1806,
      "28399c9a": 1807,
      "(\"\"": 1808,
      "Inst": 1809,
      "RE": 1810,
      "FileCreate": 1811,
      "Us": 1812,
      "Ar": 1813,
      "Mode": 1814,
      "380": 1815,
      "ng": 1816,
      "477": 1817,
      "ABv": 1818,
      "AEEAWgBRAEIA": 1819,
      "_none_7d": 1820,
      "Lev": 1821,
      "Level": 1822,
      "TaskScheduler": 1823,
      "Session": 1824,
      "ources": 1825,
      "ACk": 1826,
      "Message": 1827,
      "result": 1828,
      "WO": 1829,
      "VQBBAG": 1830,
      "e1": 1831,
      "ays": 1832,
      "6282": 1833,
      "ne": 1834,
      "cd": 1835,
      "irectory": 1836,
      "aec": 1837,
      "AHY": 1838,
      "AEU": 1839,
      "iled": 1840,
      "op": 1841,
      "AEEAZABBAE": 1842,
      "UAM": 1843,
      "ock": 1844,
      "Bo": 1845,
      "ARQB": 1846,
      "LgB": 1847,
      "HA": 1848,
      "gBv": 1849,
      "eck": 1850,
      "ns": 1851,
      "Present": 1852,
      "Module": 1853,
      "AE8": 1854,
      "Transaction": 1855,
      "T18": 1856,
      "AC0ARQB": 1857,
      "using": 1858,
      "pAG4": 1859,
      "AHcAQgA": 1860,
      "adf": 1861,
      "Environment": 1862,
      "load": 1863,
      "30319": 1864,
      "Classic": 1865,
      "__cmdletization_m": 1866,
      "Change": 1867,
      "ABp": 1868,
      "Link": 1869,
      "eQB": 1870,
      "1790": 1871,
      "e81": 1872,
      "nAEEAR": 1873,
      "aAFEAQgB": 1874,
      "alw": 1875,
      "AIAB7": 1876,
      "SE": 1877,
      "AcgBp": 1878,
      "ACAAJ": 1879,
      "IS": 1880,
      "}\",": 1881,
      "==": 1882,
      "397": 1883,
      "dABo": 1884,
      "AEEAYwB": 1885,
      "ection": 1886,
      "List": 1887,
      "')": 1888,
      "always": 1889,
      "0x9": 1890,
      "AbgBn": 1891,
      "ProviderName": 1892,
      "07ca": 1893,
      "f2aec": 1894,
      "10e81": 1895,
      "_none_7df2aec": 1896,
      "1790_none_7df2aec": 1897,
      "07ca10e81": 1898,
      "1790_none_7df2aec07ca10e81": 1899,
      "e2": 1900,
      "lACAA": 1901,
      "rv": 1902,
      "AIAB7ACAA": 1903,
      ".\",": 1904,
      "ZQBt": 1905,
      "9ACAA": 1906,
      "AEw": 1907,
      "ProviderState": 1908,
      "NewProviderState": 1909,
      "YQB0": 1910,
      "AQQBCAGw": 1911,
      "7f": 1912,
      "$($": 1913,
      "ails": 1914,
      "Manager": 1915,
      "fa6": 1916,
      "AZQBu": 1917,
      "Imperson": 1918,
      "lAH": 1919,
      "4b10": 1920,
      "62": 1921,
      "AG8Ad": 1922,
      "gAQQBBAG": 1923,
      "ices": 1924,
      "SQ": 1925,
      "0x14": 1926,
      "b8": 1927,
      "DA": 1928,
      "cc59": 1929,
      "8f5c": 1930,
      "47dc": 1931,
      "Users": 1932,
      "QAK": 1933,
      "1afd": 1934,
      "ABlACAALQB": 1935,
      "35384": 1936,
      "44d35384": 1937,
      "1afd44d35384": 1938,
      "b380": 1939,
      "fc9d": 1940,
      "36ec": 1941,
      "']\"": 1942,
      "KAB": 1943,
      "1d807": 1944,
      "b398e": 1945,
      "fc9d477": 1946,
      "1d807fc9d477": 1947,
      "b398eadf": 1948,
      "AGUAKAA": 1949,
      "AHIAaQB": 1950,
      "AdABo": 1951,
      "wAIAA": 1952,
      "ACAAJAB": 1953,
      "AdQB0": 1954,
      "AHgA": 1955,
      "PQAg": 1956,
      "hAG": 1957,
      "AFIA": 1958,
      "ake": 1959,
      "fig": 1960,
      "ter": 1961,
      "AF0": 1962,
      "ABlAHgA": 1963,
      "pAAoAJ": 1964,
      "only": 1965,
      "ACAAPQAg": 1966,
      "ABlAHIA": 1967,
      "AcgBh": 1968,
      "Group": 1969,
      "gAD0AIAA": 1970,
      "AGcAQQB": 1971,
      "AOgA6": 1972,
      "AF0AOgA6": 1973,
      "ware": 1974,
      "pAG4Ad": 1975,
      "jAGgA": 1976,
      "AZQB0": 1977,
      "AG0AIAA": 1978,
      "AAC": 1979,
      "AHAAc": 1980,
      "6ADo": 1981,
      "lock": 1982,
      "AEEAQwBB": 1983,
      "this": 1984,
      "ich": 1985,
      "KACQA": 1986,
      "ACwAIAA": 1987,
      "gBz": 1988,
      "AG8AbgBz": 1989,
      "AYwBv": 1990,
      "AHo": 1991,
      "//": 1992,
      "EB": 1993,
      "AC0AU": 1994,
      "AQwBy": 1995,
      "IAA": 1996,
      "adm": 1997,
      "AIAAo": 1998,
      "AGYAIAAo": 1999,
      "WAGE": 2000,
      "Details": 2001,
      "wBT": 2002,
      "AGwAbwB": 2003,
      "0x2": 2004,
      "IgA": 2005,
      "AbABs": 2006,
      "AZQB0AC0": 2007,
      "AHUAbABs": 2008,
      "inst": 2009,
      "WwBT": 2010,
      "program": 2011,
      "9ACAAWwBT": 2012,
      "ACkAC": 2013,
      "wAu": 2014,
      "jAGs": 2015,
      "exception": 2016,
      "e3": 2017,
      "AbABv": 2018,
      "gBhAHIAaQB": 2019,
      "AFMAdAByAGk": 2020,
      "AZQBz": 2021,
      "aQBuAGc": 2022,
      "wB0AHIAaQBuAGc": 2023,
      "Valid": 2024,
      "vAHQ": 2025,
      "AGUAYQB0": 2026,
      "LgBT": 2027,
      "6ADoAQwBy": 2028,
      "AGwAbwBjAGs": 2029,
      "AGUAYQB0AGUAKAA": 2030,
      "6ADoAQwByAGUAYQB0AGUAKAA": 2031,
      "wAHQA": 2032,
      "AdABoACAALQB": 2033,
      "Administrat": 2034,
      "AGAA": 2035,
      "dQB0": 2036,
      "AHAAdQB0": 2037,
      "OAGE": 2038,
      "OAGEAbQB": 2039,
      "wAGUAcgB": 2040,
      "AQQBDAEEAQQB": 2041,
      "Administrator": 2042,
      "426": 2043,
      "ACAAfAAg": 2044,
      "nAEEA": 2045,
      "QBBAEkAQQB": 2046,
      "AE8AdQB0": 2047,
      "AbgBvAHQ": 2048,
      "AC0AbgBvAHQ": 2049,
      "gBJAGYAIAAo": 2050,
      "AVgBhAHIAaQB": 2051,
      "hAGIAb": 2052,
      "AZQB0AC0AVgBhAHIAaQB": 2053,
      "gBJAGYAIAAoAC0AbgBvAHQ": 2054,
      "AZQB0AC0AVgBhAHIAaQBhAGIAb": 2055,
      "1AGU": 2056,
      "AFMAdAByAGkAbgBn": 2057,
      "ACAAfAAgAE8AdQB0": 2058,
      "AEwAZQBu": 2059,
      "wAuAEwAZQBu": 2060,
      "wAuAEwAZQBuAGc": 2061,
      "CAGwAbwBjAGs": 2062,
      "AHAAb": 2063,
      "AGEAcAB": 2064,
      "wByAGEAcAB": 2065,
      "AbQBwAHQA": 2066,
      "ACQAaQBu": 2067,
      "IgAp": 2068,
      "ACQAaQBuAHAAdQB0": 2069,
      "ZQBj": 2070,
      "HK": 2071,
      "ACAAIgB": 2072,
      "ZQBtAG8Ad": 2073,
      "AFIAZQBtAG8Ad": 2074,
      "AFIAZQBtAG8AdgBl": 2075,
      "AAwAD": 2076,
      "yACk": 2077,
      "AGEAZ": 2078,
      "IAA9ACAAWwBT": 2079,
      "wAC4": 2080,
      "ABpAHQA": 2081,
      "2ADUAM": 2082,
      "0x19": 2083,
      "CE": 2084,
      "AACgA": 2085,
      "uAHUAbABs": 2086,
      "lAHEAIAA": 2087,
      "ACAAJABuAHUAbABs": 2088,
      "ABlAHIAIAA9ACAAWwBT": 2089,
      "JgB": 2090,
      "3ACAALQB": 2091,
      "FAG4": 2092,
      "PAHAAdAB": 2093,
      "YAAw": 2094,
      "agBz": 2095,
      "cABh": 2096,
      "fAHM": 2097,
      "fAHc": 2098,
      "fAHIAYQB": 2099,
      "pAG8AbgBz": 2100,
      "wAIABb": 2101,
      "AAXQA": 2102,
      "AcwB0AHIA": 2103,
      "AdwByAGEAcAB": 2104,
      "gAkAGUAeABlAGMAXwB3AHIAYQBwAHAAZQBy": 2105,
      "AHIAbwB3": 2106,
      "EAXQA": 2107,
      "ZQB4AGUAYwB": 2108,
      "YwBwAC4": 2109,
      "AcABsAGkAdABPAHAAdAB": 2110,
      "kAHMAcABsAGkAdABfAHAAYQByAHQAcwA": 2111,
      "kAHMAcABsAGkAdABfAHAAYQByAHQAcwBbAD": 2112,
      "AdAByACAAPQAg": 2113,
      "AbAB1AGU": 2114,
      "AHkAbABv": 2115,
      "AFMAZQB0AC0AVgBhAHIAaQBhAGIAb": 2116,
      "AFMAcABsAGkAdABPAHAAdAB": 2117,
      "AGMAcgBp": 2118,
      "AdAByAGkAZQBz": 2119,
      "yACwAIABb": 2120,
      "gBhAGwAaQB": 2121,
      "AAoAJABlAHgA": 2122,
      "AG8AbgBfAHIAYQB": 2123,
      "AF8AcwB0AHIA": 2124,
      "AF8AdwByAGEAcAB": 2125,
      "ACAAfQAK": 2126,
      "AHAAdABCAGwAbwBjAGs": 2127,
      "IgBgADAA": 2128,
      "gADAAIgAp": 2129,
      "wBbADEAXQA": 2130,
      "AIAAkAHMAcABsAGkAdABfAHAAYQByAHQAcwAuAEwAZQBuAGc": 2131,
      "AIAAkAHMAcABsAGkAdABfAHAAYQByAHQAcwBbADEAXQA": 2132,
      "kAGUAeABlAGMAXwB3AHIAYQBwAHAAZQByAF8AcwB0AHIA": 2133,
      "kACAAcABh": 2134,
      "MABgADAAIgAp": 2135,
      "ACgAkAHMAcABsAGkAdABfAHAAYQByAHQAcwA": 2136,
      "AAiACAAfQAK": 2137,
      "AXQA6ADoAQwByAGUAYQB0AGUAKAA": 2138,
      "AEUAbQBwAHQA": 2139,
      "eQBFAG4": 2140,
      "dABoAHIAbwB3": 2141,
      "lACAAagBz": 2142,
      "AIAB7ACAAdABoAHIAbwB3": 2143,
      "ABlACAALQBOAGEAbQB": 2144,
      "KABAACgA": 2145,
      "pAAoAJgAkAGUAeABlAGMAXwB3AHIAYQBwAHAAZQBy": 2146,
      "AcgBhAHAAc": 2147,
      "gAD0AIAAkAGUAeABlAGMAXwB3AHIAYQBwAHAAZQByAF8AcwB0AHIA": 2148,
      "AF0AOgA6AFIAZQBtAG8AdgBl": 2149,
      "pAG4AdgBhAGwAaQB": 2150,
      "jAGgAYwBwAC4": 2151,
      "AG0AIAA2ADUAM": 2152,
      "KACQAZQB4AGUAYwB": 2153,
      "ACwAIAAyACwAIABb": 2154,
      "AYwBvAG0AIAA2ADUAM": 2155,
      "AC0AUwB0AHIAaQBuAGc": 2156,
      "WAGEAbAB1AGU": 2157,
      "ACkACgBJAGYAIAAoAC0AbgBvAHQ": 2158,
      "LgBTAHAAb": 2159,
      "AdABoACAALQBlAHEAIAA": 2160,
      "AGAAMABgADAAIgAp": 2161,
      "wAGUAcgBfAHM": 2162,
      "AFMAdAByAGkAbgBnAFMAcABsAGkAdABPAHAAdAB": 2163,
      "ACAAfAAgAE8AdQB0AC0AUwB0AHIAaQBuAGc": 2164,
      "ACQAaQBuAHAAdQB0ACAAfAAgAE8AdQB0AC0AUwB0AHIAaQBuAGc": 2165,
      "ZQBjAF8AdwByAGEAcAB": 2166,
      "ACAAIgBpAG4AdgBhAGwAaQB": 2167,
      "AAwADEAIAA": 2168,
      "yACkAIAB7ACAAdABoAHIAbwB3": 2169,
      "AGEAZAAiACAAfQAK": 2170,
      "ABpAHQAKABAACgA": 2171,
      "ABlAHIAIAA9ACAAWwBTAGMAcgBp": 2172,
      "JgBjAGgAYwBwAC4": 2173,
      "3ACAALQBWAGEAbAB1AGU": 2174,
      "YAAwAGAAMABgADAAIgAp": 2175,
      "fAHcAcgBhAHAAc": 2176,
      "pAG8AbgBzAF0AOgA6AFIAZQBtAG8AdgBl": 2177,
      "AAXQApAAoAJgAkAGUAeABlAGMAXwB3AHIAYQBwAHAAZQBy": 2178,
      "kAHMAcABsAGkAdABfAHAAYQByAHQAcwBbADAAXQApAAoAJgAkAGUAeABlAGMAXwB3AHIAYQBwAHAAZQBy": 2179,
      "AdAByACAAPQAgACQAaQBuAHAAdQB0ACAAfAAgAE8AdQB0AC0AUwB0AHIAaQBuAGc": 2180,
      "AHkAbABvAGEAZAAiACAAfQAK": 2181,
      "AFMAZQB0AC0AVgBhAHIAaQBhAGIAbABlACAALQBOAGEAbQB": 2182,
      "AdAByAGkAZQBzACkACgBJAGYAIAAoAC0AbgBvAHQ": 2183,
      "AAoAJABlAHgAZQBjAF8AdwByAGEAcAB": 2184,
      "AG8AbgBfAHIAYQB3ACAALQBWAGEAbAB1AGU": 2185,
      "AHAAdABCAGwAbwBjAGsAXQA6ADoAQwByAGUAYQB0AGUAKAA": 2186,
      "IgBgADAAYAAwAGAAMABgADAAIgAp": 2187,
      "AIAAkAHMAcABsAGkAdABfAHAAYQByAHQAcwAuAEwAZQBuAGcAdABoACAALQBlAHEAIAA": 2188,
      "AIAAkAHMAcABsAGkAdABfAHAAYQByAHQAcwBbADEAXQAKACQAZQB4AGUAYwB": 2189,
      "kACAAcABhAHkAbABvAGEAZAAiACAAfQAK": 2190,
      "ACgAkAHMAcABsAGkAdABfAHAAYQByAHQAcwAgAD0AIAAkAGUAeABlAGMAXwB3AHIAYQBwAHAAZQByAF8AcwB0AHIA": 2191,
      "AEUAbQBwAHQAeQBFAG4": 2192,
      "lACAAagBzAG8AbgBfAHIAYQB3ACAALQBWAGEAbAB1AGU": 2193,
      "ACwAIAAyACwAIABbAFMAdAByAGkAbgBnAFMAcABsAGkAdABPAHAAdAB": 2194,
      "AYwBvAG0AIAA2ADUAMAAwADEAIAA": 2195,
      "LgBTAHAAbABpAHQAKABAACgA": 2196,
      "wAGUAcgBfAHMAdAByACAAPQAgACQAaQBuAHAAdQB0ACAAfAAgAE8AdQB0AC0AUwB0AHIAaQBuAGc": 2197,
      "ACAAIgBpAG4AdgBhAGwAaQBkACAAcABhAHkAbABvAGEAZAAiACAAfQAK": 2198,
      "yACkAIAB7ACAAdABoAHIAbwB3ACAAIgBpAG4AdgBhAGwAaQBkACAAcABhAHkAbABvAGEAZAAiACAAfQAK": 2199,
      "ABlAHIAIAA9ACAAWwBTAGMAcgBpAHAAdABCAGwAbwBjAGsAXQA6ADoAQwByAGUAYQB0AGUAKAA": 2200,
      "JgBjAGgAYwBwAC4AYwBvAG0AIAA2ADUAMAAwADEAIAA": 2201,
      "fAHcAcgBhAHAAcABlAHIAIAA9ACAAWwBTAGMAcgBpAHAAdABCAGwAbwBjAGsAXQA6ADoAQwByAGUAYQB0AGUAKAA": 2202,
      "pAG8AbgBzAF0AOgA6AFIAZQBtAG8AdgBlAEUAbQBwAHQAeQBFAG4": 2203,
      "kAHMAcABsAGkAdABfAHAAYQByAHQAcwBbADAAXQApAAoAJgAkAGUAeABlAGMAXwB3AHIAYQBwAHAAZQByAA": 2204,
      "AFMAZQB0AC0AVgBhAHIAaQBhAGIAbABlACAALQBOAGEAbQBlACAAagBzAG8AbgBfAHIAYQB3ACAALQBWAGEAbAB1AGU": 2205,
      "AdAByAGkAZQBzACkACgBJAGYAIAAoAC0AbgBvAHQAIAAkAHMAcABsAGkAdABfAHAAYQByAHQAcwAuAEwAZQBuAGcAdABoACAALQBlAHEAIAA": 2206,
      "AAoAJABlAHgAZQBjAF8AdwByAGEAcABwAGUAcgBfAHMAdAByACAAPQAgACQAaQBuAHAAdQB0ACAAfAAgAE8AdQB0AC0AUwB0AHIAaQBuAGc": 2207,
      "IgBgADAAYAAwAGAAMABgADAAIgApACwAIAAyACwAIABbAFMAdAByAGkAbgBnAFMAcABsAGkAdABPAHAAdAB": 2208,
      "AIAAkAHMAcABsAGkAdABfAHAAYQByAHQAcwBbADEAXQAKACQAZQB4AGUAYwBfAHcAcgBhAHAAcABlAHIAIAA9ACAAWwBTAGMAcgBpAHAAdABCAGwAbwBjAGsAXQA6ADoAQwByAGUAYQB0AGUAKAA": 2209,
      "ACgAkAHMAcABsAGkAdABfAHAAYQByAHQAcwAgAD0AIAAkAGUAeABlAGMAXwB3AHIAYQBwAHAAZQByAF8AcwB0AHIALgBTAHAAbABpAHQAKABAACgA": 2210,
      "yACkAIAB7ACAAdABoAHIAbwB3ACAAIgBpAG4AdgBhAGwAaQBkACAAcABhAHkAbABvAGEAZAAiACAAfQAKAFMAZQB0AC0AVgBhAHIAaQBhAGIAbABlACAALQBOAGEAbQBlACAAagBzAG8AbgBfAHIAYQB3ACAALQBWAGEAbAB1AGU": 2211,
      "pAG8AbgBzAF0AOgA6AFIAZQBtAG8AdgBlAEUAbQBwAHQAeQBFAG4AdAByAGkAZQBzACkACgBJAGYAIAAoAC0AbgBvAHQAIAAkAHMAcABsAGkAdABfAHAAYQByAHQAcwAuAEwAZQBuAGcAdABoACAALQBlAHEAIAA": 2212,
      "AAoAJABlAHgAZQBjAF8AdwByAGEAcABwAGUAcgBfAHMAdAByACAAPQAgACQAaQBuAHAAdQB0ACAAfAAgAE8AdQB0AC0AUwB0AHIAaQBuAGcACgAkAHMAcABsAGkAdABfAHAAYQByAHQAcwAgAD0AIAAkAGUAeABlAGMAXwB3AHIAYQBwAHAAZQByAF8AcwB0AHIALgBTAHAAbABpAHQAKABAACgA": 2213,
      "IgBgADAAYAAwAGAAMABgADAAIgApACwAIAAyACwAIABbAFMAdAByAGkAbgBnAFMAcABsAGkAdABPAHAAdABpAG8AbgBzAF0AOgA6AFIAZQBtAG8AdgBlAEUAbQBwAHQAeQBFAG4AdAByAGkAZQBzACkACgBJAGYAIAAoAC0AbgBvAHQAIAAkAHMAcABsAGkAdABfAHAAYQByAHQAcwAuAEwAZQBuAGcAdABoACAALQBlAHEAIAA": 2214,
      "AIAAkAHMAcABsAGkAdABfAHAAYQByAHQAcwBbADEAXQAKACQAZQB4AGUAYwBfAHcAcgBhAHAAcABlAHIAIAA9ACAAWwBTAGMAcgBpAHAAdABCAGwAbwBjAGsAXQA6ADoAQwByAGUAYQB0AGUAKAAkAHMAcABsAGkAdABfAHAAYQByAHQAcwBbADAAXQApAAoAJgAkAGUAeABlAGMAXwB3AHIAYQBwAHAAZQByAA": 2215,
      "yACkAIAB7ACAAdABoAHIAbwB3ACAAIgBpAG4AdgBhAGwAaQBkACAAcABhAHkAbABvAGEAZAAiACAAfQAKAFMAZQB0AC0AVgBhAHIAaQBhAGIAbABlACAALQBOAGEAbQBlACAAagBzAG8AbgBfAHIAYQB3ACAALQBWAGEAbAB1AGUAIAAkAHMAcABsAGkAdABfAHAAYQByAHQAcwBbADEAXQAKACQAZQB4AGUAYwBfAHcAcgBhAHAAcABlAHIAIAA9ACAAWwBTAGMAcgBpAHAAdABCAGwAbwBjAGsAXQA6ADoAQwByAGUAYQB0AGUAKAAkAHMAcABsAGkAdABfAHAAYQByAHQAcwBbADAAXQApAAoAJgAkAGUAeABlAGMAXwB3AHIAYQBwAHAAZQByAA": 2216,
      "AAoAJABlAHgAZQBjAF8AdwByAGEAcABwAGUAcgBfAHMAdAByACAAPQAgACQAaQBuAHAAdQB0ACAAfAAgAE8AdQB0AC0AUwB0AHIAaQBuAGcACgAkAHMAcABsAGkAdABfAHAAYQByAHQAcwAgAD0AIAAkAGUAeABlAGMAXwB3AHIAYQBwAHAAZQByAF8AcwB0AHIALgBTAHAAbABpAHQAKABAACgAIgBgADAAYAAwAGAAMABgADAAIgApACwAIAAyACwAIABbAFMAdAByAGkAbgBnAFMAcABsAGkAdABPAHAAdABpAG8AbgBzAF0AOgA6AFIAZQBtAG8AdgBlAEUAbQBwAHQAeQBFAG4AdAByAGkAZQBzACkACgBJAGYAIAAoAC0AbgBvAHQAIAAkAHMAcABsAGkAdABfAHAAYQByAHQAcwAuAEwAZQBuAGcAdABoACAALQBlAHEAIAA": 2217,
      "AAoAJABlAHgAZQBjAF8AdwByAGEAcABwAGUAcgBfAHMAdAByACAAPQAgACQAaQBuAHAAdQB0ACAAfAAgAE8AdQB0AC0AUwB0AHIAaQBuAGcACgAkAHMAcABsAGkAdABfAHAAYQByAHQAcwAgAD0AIAAkAGUAeABlAGMAXwB3AHIAYQBwAHAAZQByAF8AcwB0AHIALgBTAHAAbABpAHQAKABAACgAIgBgADAAYAAwAGAAMABgADAAIgApACwAIAAyACwAIABbAFMAdAByAGkAbgBnAFMAcABsAGkAdABPAHAAdABpAG8AbgBzAF0AOgA6AFIAZQBtAG8AdgBlAEUAbQBwAHQAeQBFAG4AdAByAGkAZQBzACkACgBJAGYAIAAoAC0AbgBvAHQAIAAkAHMAcABsAGkAdABfAHAAYQByAHQAcwAuAEwAZQBuAGcAdABoACAALQBlAHEAIAAyACkAIAB7ACAAdABoAHIAbwB3ACAAIgBpAG4AdgBhAGwAaQBkACAAcABhAHkAbABvAGEAZAAiACAAfQAKAFMAZQB0AC0AVgBhAHIAaQBhAGIAbABlACAALQBOAGEAbQBlACAAagBzAG8AbgBfAHIAYQB3ACAALQBWAGEAbAB1AGUAIAAkAHMAcABsAGkAdABfAHAAYQByAHQAcwBbADEAXQAKACQAZQB4AGUAYwBfAHcAcgBhAHAAcABlAHIAIAA9ACAAWwBTAGMAcgBpAHAAdABCAGwAbwBjAGsAXQA6ADoAQwByAGUAYQB0AGUAKAAkAHMAcABsAGkAdABfAHAAYQByAHQAcwBbADAAXQApAAoAJgAkAGUAeABlAGMAXwB3AHIAYQBwAHAAZQByAA": 2218,
      "Available": 2219,
      "aW": 2220,
      "AQQBHAHcAQQB": 2221,
      "721": 2222,
      "does": 2223,
      "wBB": 2224,
      "run": 2225,
      "=\"\"": 2226,
      "ol": 2227,
      "f4": 2228,
      "enabled": 2229,
      "11T08": 2230,
      "769": 2231,
      "0Z": 2232,
      "lsm": 2233,
      "ma": 2234,
      "Stat": 2235,
      "ifi": 2236,
      ":\\\\": 2237,
      "Current": 2238,
      "RO": 2239,
      ",,{": 2240,
      "9Z": 2241,
      "Descriptor": 2242,
      "read": 2243,
      "Ass": 2244,
      "gBBAEQA": 2245,
      "AQQBHAD": 2246,
      "a9": 2247,
      "which": 2248,
      "102": 2249,
      "ating": 2250,
      "agBBAE": 2251,
      "958": 2252,
      "138": 2253,
      "su": 2254,
      "fee": 2255,
      "11T15": 2256,
      "4Z": 2257,
      "Dri": 2258,
      "Ori": 2259,
      "Origin": 2260,
      "fer": 2261,
      "AQQBHAFUAQQB": 2262,
      "AZQBy": 2263,
      "c8": 2264,
      "AZQAg": 2265,
      "XJ": 2266,
      "BAD": 2267,
      "vAG4": 2268,
      "EX": 2269,
      "wm": 2270,
      "All": 2271,
      "resources": 2272,
      "a4": 2273,
      "dat": 2274,
      "exec": 2275,
      "3d": 2276,
      "a0": 2277,
      "ToRun": 2278,
      "SQL": 2279,
      "6d": 2280,
      "defaultValue": 2281,
      "JAEEAQQB": 2282,
      "__cmdletization_defaultValue": 2283,
      "16T15": 2284,
      "message": 2285,
      "Services": 2286,
      "ast": 2287,
      "lim": 2288,
      "deleted": 2289,
      "7Z": 2290,
      "nAEI": 2291,
      "oftware": 2292,
      "Software": 2293,
      "2d": 2294,
      "atory": 2295,
      "andatory": 2296,
      "ere": 2297,
      "mgr": 2298,
      "089": 2299,
      "au": 2300,
      "cho": 2301,
      "8AQQB": 2302,
      "With": 2303,
      "hAFEAQgB": 2304,
      "CO": 2305,
      "IO": 2306,
      "embly": 2307,
      ",%%": 2308,
      "07T18": 2309,
      "\\{": 2310,
      "BAFk": 2311,
      "'],{": 2312,
      "4688": 2313,
      "each": 2314,
      "Int": 2315,
      "e_31bf3856ad364e35_10": 2316,
      "gBBAEI": 2317,
      "Ter": 2318,
      "619": 2319,
      "application": 2320,
      "Management": 2321,
      "iAGcAQgB": 2322,
      "Mandatory": 2323,
      "Idle": 2324,
      "75": 2325,
      "Termin": 2326,
      "428": 2327,
      "toco": 2328,
      "Inv": 2329,
      "af": 2330,
      "ab7": 2331,
      "wow": 2332,
      "DC2": 2333,
      "ZgBBAE": 2334,
      "EF": 2335,
      "jAEEAQgB": 2336,
      "wr": 2337,
      "AE0AQQB": 2338,
      "e7": 2339,
      "2AEEAR": 2340,
      "DADAAQQB": 2341,
      "_value": 2342,
      "AOABBAG": 2343,
      "wow64": 2344,
      "wAUQBC": 2345,
      "6Z": 2346,
      "CA": 2347,
      "session": 2348,
      "'/": 2349,
      "1936": 2350,
      "AGcAQgBo": 2351,
      "Settings": 2352,
      "########": 2353,
      "levation": 2354,
      "administrator": 2355,
      ",,,,,,,,,,,,,,,,,,,,,,,,,,,,,,,,,,,,,,,,,,,,,,,,,,,,,,,,,,,,,,,,,,,,,,,,,,,,,,,,,,,,,,,,,,,,,,,,,,,,,,,,,,,,,,,,,,,,,,,,,,,,,,,,,,,,,,,,,,,,,,,,,,,,,,,,,,,,,,,,,,,,,,,,,,,,,,,,": 2356,
      "xml": 2357,
      "limited": 2358,
      "Update": 2359,
      "msg": 2360,
      "Elevation": 2361,
      "nel": 2362,
      "AHcAQgAz": 2363,
      "=$": 2364,
      "_ladm": 2365,
      "student_ladm": 2366,
      "wBBAEMAQQBBAE": 2367,
      "AEEASABJAEEAW": 2368,
      "${": 2369,
      "logged": 2370,
      "DV": 2371,
      "Ro": 2372,
      "6009": 2373,
      "4420": 2374,
      "ConsoleHost": 2375,
      "b6e": 2376,
      "WriteEA": 2377,
      "Validate": 2378,
      "8b": 2379,
      "sign": 2380,
      "Exception": 2381,
      "dff": 2382,
      "lient": 2383,
      "ateg": 2384,
      "fields": 2385,
      "wY": 2386,
      "check": 2387,
      "8Z": 2388,
      "}\\": 2389,
      "mui": 2390,
      "ument": 2391,
      ",,['": 2392,
      "foreach": 2393,
      "5b": 2394,
      "act": 2395,
      "680": 2396,
      "AEEARwBF": 2397,
      "964": 2398,
      "0c00": 2399,
      "IB": 2400,
      "cl": 2401,
      "mdlet": 2402,
      "AcABBAEcA": 2403,
      "ori": 2404,
      "918": 2405,
      "1aa": 2406,
      "0838": 2407,
      "3344": 2408,
      "487d": 2409,
      "(-": 2410,
      "root": 2411,
      "YwBBAE": 2412,
      "4b9c": 2413,
      "304": 2414,
      "indicate": 2415,
      "create": 2416,
      "98a7": 2417,
      "9589": 2418,
      "c9": 2419,
      "9cdb": 2420,
      "OABBAG": 2421,
      "90b6e": 2422,
      "61990b6e": 2423,
      "61990b6e0838": 2424,
      "08d5": 2425,
      "8d27": 2426,
      "cont": 2427,
      "326b": 2428,
      "privileged": 2429,
      "NV": 2430,
      "a6089": 2431,
      "ab7a6089": 2432,
      "08d53344": 2433,
      "8d27ab7a6089": 2434,
      "0_": 2435,
      "x64": 2436,
      "79": 2437,
      "From": 2438,
      "Out": 2439,
      "f3": 2440,
      "AppData": 2441,
      "Ker": 2442,
      "Param": 2443,
      "ac7": 2444,
      "uct": 2445,
      "wAw": 2446,
      "AEEAYQB": 2447,
      "state": 2448,
      "9e": 2449,
      "can": 2450,
      "NO": 2451,
      "warn": 2452,
      "fail": 2453,
      "ages": 2454,
      "params": 2455,
      "Ma": 2456,
      "audit": 2457,
      "897": 2458,
      "663": 2459,
      "ual": 2460,
      "ress": 2461,
      "Pr": 2462,
      "96f": 2463,
      "ember": 2464,
      "Status": 2465,
      "htable": 2466,
      "_path": 2467,
      "'],,": 2468,
      "20T11": 2469,
      "ky": 2470,
      "46_none_": 2471,
      "8c1c": 2472,
      "90f1": 2473,
      "7691": 2474,
      "91aa": 2475,
      "Stop": 2476,
      "26dff": 2477,
      "90f126dff": 2478,
      "90f126dff680": 2479,
      "ecdc": 2480,
      "YAT": 2481,
      "0924": 2482,
      "wrapper": 2483,
      "4f5a": 2484,
      "18426": 2485,
      "64ecdc": 2486,
      "72118426": 2487,
      "96f64ecdc": 2488,
      "96f64ecdcac7": 2489,
      "gument": 2490,
      "4ba": 2491,
      "AFEAQgB3": 2492,
      "NABBAG": 2493,
      "QAQQB": 2494,
      "ify": 2495,
      "c2": 2496,
      "ced": 2497,
      "f18": 2498,
      "vi": 2499,
      "Contains": 2500,
      "886": 2501,
      "b3d8": 2502,
      "AEEAQwBr": 2503,
      "QAZwBC": 2504,
      "AQQBEAEEAQQB": 2505,
      "16T16": 2506,
      "b2": 2507,
      "Fail": 2508,
      "([": 2509,
      "FT": 2510,
      "1AEEARwB": 2511,
      "AdwBCAHk": 2512,
      "8we": 2513,
      "kyb3d8": 2514,
      "8wekyb3d8": 2515,
      "8wekyb3d8bb": 2516,
      "Not": 2517,
      "ug": 2518,
      "SAF": 2519,
      "Lm": 2520,
      "Execute": 2521,
      "YAFEAQQB": 2522,
      "YAOABBAG": 2523,
      "AdwBCADA": 2524,
      "AdwBCAGI": 2525,
      "AEEASQBBAEEAawBBAEgATQBBAGMAQQBCAHMAQQBHAGsAQQBkAEEAQgBmAEEASABBAEEAWQBRAEIAeQBBAEgAUQBBAGM": 2526,
      "wBBAEMAQQBBAEwAUQBC": 2527,
      "1AEEARwBj": 2528,
      "AdwBCADAAQQBIAEkAQQB": 2529,
      "SD": 2530,
      "c0": 2531,
      "wow64_microsoft": 2532,
      "Exit": 2533,
      "ari": 2534,
      "ray": 2535,
      "8wekyb3d8bbwe": 2536,
      "AEEAWgB": 2537,
      "vc": 2538,
      "iam": 2539,
      "ProcessGUID": 2540,
      "ProcessAccess": 2541,
      "1f": 2542,
      "aut": 2543,
      "sh": 2544,
      "BASE": 2545,
      "KERNELBASE": 2546,
      "Bound": 2547,
      "())": 2548,
      "WIN19": 2549,
      "4104": 2550,
      "lick": 2551,
      "ode": 2552,
      "4424": 2553,
      "script": 2554,
      "Cor": 2555,
      "Lo": 2556,
      "UwB": 2557,
      "1f7": 2558,
      "WriteAttributes": 2559,
      "7c7": 2560,
      "For": 2561,
      "4689": 2562,
      "22T": 2563,
      "spec": 2564,
      "Vari": 2565,
      "ContainsKey": 2566,
      "AEEAQQA": 2567,
      "Click": 2568,
      "):": 2569,
      "exited": 2570,
      "BD": 2571,
      "4b9": 2572,
      "Framework64": 2573,
      "ClickToRun": 2574,
      "admin": 2575,
      "gener": 2576,
      "system": 2577,
      "a47": 2578,
      "ToString": 2579,
      "HKLM": 2580,
      "f55": 2581,
      "3b": 2582,
      "Dele": 2583,
      "oci": 2584,
      "=\"": 2585,
      "awBBAG": 2586,
      "Original": 2587,
      "data": 2588,
      "ified": 2589,
      "generated": 2590,
      "Hashtable": 2591,
      "inter": 2592,
      "://": 2593,
      "microsoft": 2594,
      "ACAAJABuAHUAbABsAAoAJABlAHgAZQBjAF8AdwByAGEAcABwAGUAcgBfAHMAdAByACAAPQAgACQAaQBuAHAAdQB0ACAAfAAgAE8AdQB0AC0AUwB0AHIAaQBuAGcACgAkAHMAcABsAGkAdABfAHAAYQByAHQAcwAgAD0AIAAkAGUAeABlAGMAXwB3AHIAYQBwAHAAZQByAF8AcwB0AHIALgBTAHAAbABpAHQAKABAACgAIgBgADAAYAAwAGAAMABgADAAIgApACwAIAAyACwAIABbAFMAdAByAGkAbgBnAFMAcABsAGkAdABPAHAAdABpAG8AbgBzAF0AOgA6AFIAZQBtAG8AdgBlAEUAbQBwAHQAeQBFAG4AdAByAGkAZQBzACkACgBJAGYAIAAoAC0AbgBvAHQAIAAkAHMAcABsAGkAdABfAHAAYQByAHQAcwAuAEwAZQBuAGcAdABoACAALQBlAHEAIAAyACkAIAB7ACAAdABoAHIAbwB3ACAAIgBpAG4AdgBhAGwAaQBkACAAcABhAHkAbABvAGEAZAAiACAAfQAKAFMAZQB0AC0AVgBhAHIAaQBhAGIAbABlACAALQBOAGEAbQBlACAAagBzAG8AbgBfAHIAYQB3ACAALQBWAGEAbAB1AGUAIAAkAHMAcABsAGkAdABfAHAAYQByAHQAcwBbADEAXQAKACQAZQB4AGUAYwBfAHcAcgBhAHAAcABlAHIAIAA9ACAAWwBTAGMAcgBpAHAAdABCAGwAbwBjAGsAXQA6ADoAQwByAGUAYQB0AGUAKAAkAHMAcABsAGkAdABfAHAAYQByAHQAcwBbADAAXQApAAoAJgAkAGUAeABlAGMAXwB3AHIAYQBwAHAAZQByAA": 2595,
      "creation": 2596,
      "UQBC": 2597,
      "ptions": 2598,
      "SO": 2599,
      "add": 2600,
      "AFEAQgA": 2601,
      "kAQQBC": 2602,
      "5eb": 2603,
      "cs": 2604,
      "fin": 2605,
      "TypeName": 2606,
      "RAEIAdQBBAE": 2607,
      "taskmgr": 2608,
      "ition": 2609,
      "4028": 2610,
      "71": 2611,
      "ategory": 2612,
      "MI": 2613,
      "Driver": 2614,
      "hip": 2615,
      "0_x64": 2616,
      "ership": 2617,
      "05T": 2618,
      "api": 2619,
      "__8wekyb3d8bbwe": 2620,
      "MAFEAQgB": 2621,
      "663f": 2622,
      "QBBAFk": 2623,
      "Dns": 2624,
      "WindowsApp": 2625,
      "7a": 2626,
      "DB": 2627,
      "0fee": 2628,
      "1867": 2629,
      "ln": 2630,
      "2f": 2631,
      "_wrapper": 2632,
      "Rest": 2633,
      "bcf8": 2634,
      "adc7": 2635,
      "__cmdletization_methodParameter": 2636,
      "Vy": 2637,
      "AGEAbgB": 2638,
      "0A": 2639,
      "4030": 2640,
      "0_x64__8wekyb3d8bbwe": 2641,
      "4ba2": 2642,
      "84b9": 2643,
      "RegistryEvent": 2644,
      "8977": 2645,
      "d01867": 2646,
      "059f18": 2647,
      "059f18d01867": 2648,
      "fc64": 2649,
      "aca6": 2650,
      "4fa6": 2651,
      "07eb": 2652,
      "9645": 2653,
      "68d8": 2654,
      "f1e4": 2655,
      "query": 2656,
      "9181f7": 2657,
      "0fee07eb": 2658,
      "bcf8ab": 2659,
      "9181f7bcf8ab": 2660,
      "42cc": 2661,
      "0e5e": 2662,
      "148e": 2663,
      "perty": 2664,
      "0d30": 2665,
      "ary": 2666,
      "0d0e5e": 2667,
      "f554028": 2668,
      "fc64f554028": 2669,
      "42cc5eb": 2670,
      "148e42cc5eb": 2671,
      "0d30fc64f554028": 2672,
      "0d0e5e148e42cc5eb": 2673,
      "0d30fc64f55402866": 2674,
      "Root": 2675,
      "0x19b0": 2676,
      "Code": 2677,
      "Trace": 2678,
      "cn": 2679,
      "IP": 2680,
      "by": 2681,
      "CC": 2682,
      "It": 2683,
      "ant": 2684,
      "1_": 2685,
      "Z2": 2686,
      "VQBBAE": 2687,
      "pr": 2688,
      "BAFoAUQBC": 2689,
      "BgNV": 2690,
      "Bind": 2691,
      "2b": 2692,
      "ConvertTo": 2693,
      "tocol": 2694,
      "AEEAZABBAEIA": 2695,
      "Nl": 2696,
      "----------------": 2697,
      "1ff": 2698,
      "AQQBkAEEAQgB5": 2699,
      "1000": 2700,
      "AQQBDAEEAQQBMAFEAQgB": 2701,
      "AEEAQgBs": 2702,
      "Impersonate": 2703,
      "ImpersonatePrivilege": 2704,
      "Shar": 2705,
      "from": 2706,
      "Ow": 2707,
      "Ali": 2708,
      "Alias": 2709,
      "ffff": 2710,
      "elseif": 2711,
      "Directory": 2712,
      "a0c": 2713,
      "been": 2714,
      "AFEAQgAw": 2715,
      "Port": 2716,
      "zAGk": 2717,
      "network": 2718,
      "16384": 2719,
      "local": 2720,
      "3AEIA": 2721,
      "AEk": 2722,
      "AnsibleParam": 2723,
      "4907": 2724,
      "AHQAaQB": 2725,
      "ARAI": 2726,
      "d4": 2727,
      ",,,,,,,,,,,,,,,,,,,,,,,,,,,,,,,,,,,,,,,,,,,,,,,,,,,,,,,,,,,,,,,,,,,,,,,,,,,,,,,,,,,,,,,,,,,,,,,,,,,,,,,,,,,,,,,,,,,,,,,,,,,,,,,,,,,,,,,,,,,,,,,,,,,,,,,,,,,,,,,,": 2728,
      "por": 2729,
      "new_value": 2730,
      "908": 2731,
      "png": 2732,
      "1U": 2733,
      ").": 2734,
      "van": 2735,
      "val": 2736,
      "SAFA": 2737,
      "atter": 2738,
      "Gen": 2739,
      "AHkAIAB": 2740,
      "ZXJ": 2741,
      "AEEAQwBBAEEAS": 2742,
      "resources_31bf3856ad364e35_10": 2743,
      "execut": 2744,
      "vanced": 2745,
      "iAHcAQgB": 2746,
      "256": 2747,
      "signed": 2748,
      "pes": 2749,
      "config": 2750,
      "valid": 2751,
      "Core": 2752,
      "CreationUtcTime": 2753,
      "=\",": 2754,
      "Be": 2755,
      "WindowsApps": 2756,
      "ailed": 2757,
      "Cmdletization": 2758,
      "DQ": 2759,
      "Advanced": 2760,
      "vice": 2761,
      "4664": 2762,
      "SetValue": 2763,
      "led": 2764,
      "Wrapper": 2765,
      "AHs": 2766,
      "Ed": 2767,
      "port": 2768,
      "Em": 2769,
      "llection": 2770,
      "aph": 2771,
      "9_none_": 2772,
      "red": 2773,
      "Authentication": 2774,
      "b20": 2775,
      "cbPrivilege": 2776,
      "SeTcbPrivilege": 2777,
      "AHUAQQB": 2778,
      "PSBound": 2779,
      "PSBoundParameters": 2780,
      "Filter": 2781,
      "f2b": 2782,
      "AFMA": 2783,
      "0x5": 2784,
      "741": 2785,
      "AGUAcgBzAGk": 2786,
      "AGUAcgBzAGkAbwBu": 2787,
      "fil": 2788,
      "WAGUAcgBzAGkAbwBu": 2789,
      "gAUQBBAE": 2790,
      "_d": 2791,
      "function": 2792,
      "cip": 2793,
      "AGg": 2794,
      "lAHM": 2795,
      "GA1U": 2796,
      "Z2l": 2797,
      "ZXJ0": 2798,
      "0f": 2799,
      "Own": 2800,
      ",,,,,,,,,,,,,,,,,,,,,,,,,,,,,,,,,,,,,,,,,,,,,,,,,,,,,,,,,,,,,,,,,,,,,,,,,,,,,,,,,,,,,,,,,,,,,,,,,,,,,,,,,,,,,,,,,,,,,,,,,,,,,,,,,,,,,,,,,,,,,,,,,,,,,,,,,,,,,,,,,,,,,,,,,,,,,,,,,,,,,,,,,,,,,,,,": 2801,
      "AEEARwBFAEEAY": 2802,
      "incip": 2803,
      "incipal": 2804,
      "2700": 2805,
      "fr": 2806,
      "assigned": 2807,
      "poration": 2808,
      "QBBAFoAUQBC": 2809,
      "e5": 2810,
      "puter": 2811,
      "Associ": 2812,
      "_version": 2813,
      "Modify": 2814,
      "AEEAQQBv": 2815,
      "Rp": 2816,
      "dd": 2817,
      "sys": 2818,
      "CB": 2819,
      "ies": 2820,
      "Ownership": 2821,
      "Model": 2822,
      "AGMAdAB": 2823,
      "DE": 2824,
      "SQBBAG": 2825,
      "boot": 2826,
      "ender": 2827,
      "yn": 2828,
      "Op": 2829,
      ":(": 2830,
      "alled": 2831,
      "Associated": 2832,
      "vileges": 2833,
      "Privileges": 2834,
      "Allow": 2835,
      "AGEAbgBkACAA": 2836,
      "f6bc": 2837,
      "54a": 2838,
      "4289_none_": 2839,
      "Back": 2840,
      "0x9b0": 2841,
      "QBBAEkAQQBBAG": 2842,
      "7e26": 2843,
      "7c7a47": 2844,
      "f6bc7c7a47": 2845,
      "4289_none_7e26": 2846,
      "f6bc7c7a4793": 2847,
      "4289_none_7e26f6bc7c7a4793": 2848,
      "EC2": 2849,
      "Edge": 2850,
      "US": 2851,
      "ublic": 2852,
      "},,": 2853,
      "acc": 2854,
      "iAGw": 2855,
      "LgA": 2856,
      "LS": 2857,
      "SeTake": 2858,
      "OwnershipPrivilege": 2859,
      "SeTakeOwnershipPrivilege": 2860,
      "000000002700": 2861,
      "cmd": 2862,
      "877": 2863,
      "ABD": 2864,
      "8a": 2865,
      "ABRAEIA": 2866,
      "'],['": 2867,
      "AEEARwBN": 2868,
      "Variable": 2869,
      "AdwBBAE": 2870,
      "800": 2871,
      "RAEIAdwBBAE": 2872,
      "KERNEL32": 2873,
      "AE4": 2874,
      "AHQAaQBvAG4": 2875,
      "MAQQBBAG": 2876,
      "},,,,,,,,,,,,,,,,": 2877,
      "None": 2878,
      "assembly": 2879,
      "AEEAYwBnAEIA": 2880,
      "AIAAt": 2881,
      "Updates": 2882,
      "sAGU": 2883,
      "Pre": 2884,
      "auth": 2885,
      "uAGM": 2886,
      "0x14a8": 2887,
      "27T23": 2888,
      "Maps": 2889,
      "820": 2890,
      "RY": 2891,
      "Gln": 2892,
      "Filename": 2893,
      "679": 2894,
      "Deb": 2895,
      "ZAHcAQgB": 2896,
      "610": 2897,
      "Cry": 2898,
      "2ac": 2899,
      "_p": 2900,
      "ference": 2901,
      "ProcessCreate": 2902,
      "627": 2903,
      "TargetFilename": 2904,
      "xy": 2905,
      "MgBBAEQA": 2906,
      "list": 2907,
      "Only": 2908,
      "AdQBBAE": 2909,
      "AHMAaQB": 2910,
      "agBBAEc": 2911,
      "84": 2912,
      "AEEAWAB": 2913,
      "f9": 2914,
      "FileMaps": 2915,
      "AnsibleLog": 2916,
      "Collection": 2917,
      "aun": 2918,
      "htt": 2919,
      "word": 2920,
      "0AGUAZ": 2921,
      "051": 2922,
      "JAEEAQQA": 2923,
      "BAFoAUQBCAHkAQQB": 2924,
      "0AGUAZAAg": 2925,
      "0x12": 2926,
      "+=": 2927,
      "Block": 2928,
      "Address": 2929,
      "ill": 2930,
      "AbgB0": 2931,
      "AC0AT": 2932,
      "Cmdlet": 2933,
      "Instance": 2934,
      "MALgA": 2935,
      "play": 2936,
      "EngineState": 2937,
      "273": 2938,
      "rc": 2939,
      "Principal": 2940,
      "beros": 2941,
      "53b": 2942,
      "wmip": 2943,
      "ACAAb": 2944,
      "AFAAUwB": 2945,
      "AFAAUwBWAGUAcgBzAGkAbwBu": 2946,
      "OW": 2947,
      "AssociatedNet": 2948,
      "LCR": 2949,
      "PCRSD": 2950,
      "DCLCR": 2951,
      "WDWO": 2952,
      "PCRSDWDWO": 2953,
      "DCLCRPCRSDWDWO": 2954,
      "097": 2955,
      "Read": 2956,
      "MS": 2957,
      "AFAAc": 2958,
      "AGYAaQB": 2959,
      "Hel": 2960,
      "3f": 2961,
      "AEEASQBBAE": 2962,
      "AGwAb": 2963,
      "ases": 2964,
      "AQQA": 2965,
      "sw": 2966,
      "004": 2967,
      "BB": 2968,
      "></": 2969,
      "rvse": 2970,
      "wmiprvse": 2971,
      "AGUAcgBh": 2972,
      "inue": 2973,
      "compile": 2974,
      "TA": 2975,
      "duct": 2976,
      "AEEAYgBnAEIA": 2977,
      "AbwBk": 2978,
      "Corporation": 2979,
      "AHQAaQBvAG4AU": 2980,
      "AGYAaQBsAGU": 2981,
      "eg": 2982,
      "Administrators": 2983,
      "ABBAEEA": 2984,
      "try": 2985,
      "files": 2986,
      "eng": 2987,
      "587": 2988,
      "])": 2989,
      "REG": 2990,
      "executable": 2991,
      "IST": 2992,
      "AZQAgAC0ARQB": 2993,
      "AEM": 2994,
      "Thr": 2995,
      "Use": 2996,
      "AEEASQBBAEIA": 2997,
      "LO": 2998,
      "125": 2999,
      "Deleg": 3000,
      "AHcAZQBy": 3001,
      "ABvAHcAZQBy": 3002,
      "AFAAcgBv": 3003,
      "0x1000": 3004,
      "[(": 3005,
      "AGwAaQBj": 3006,
      "':": 3007,
      "1AHQAaQBvAG4AU": 3008,
      "UABvAHcAZQBy": 3009,
      "VAG4": 3010,
      "aABl": 3011,
      "pAHY": 3012,
      "tAGEAbgBkACAA": 3013,
      "AcgBlAHM": 3014,
      "AG8AbQB": 3015,
      "AdAByAGkAYwB": 3016,
      "AAgAC0AT": 3017,
      "4AGUAYwB1AHQAaQBvAG4AU": 3018,
      "AGUAZABD": 3019,
      "AbwBuAEk": 3020,
      "ABvAGwAaQBj": 3021,
      "gBvAFAAcgBv": 3022,
      "AC0ARQBuAGM": 3023,
      "AHkAIABVAG4": 3024,
      "AFMAaABl": 3025,
      "AGMAdABpAHY": 3026,
      "AE4AbwBuAEk": 3027,
      "AIAAtAE4AbwBuAEk": 3028,
      "0AGUAZAAgAC0ARQBuAGM": 3029,
      "AbgB0AGUAcgBh": 3030,
      "AGwAbAAgAC0AT": 3031,
      "AbwBkAGUAZABD": 3032,
      "AGYAaQBsAGUAIAAtAE4AbwBuAEk": 3033,
      "AZQAgAC0ARQB4AGUAYwB1AHQAaQBvAG4AU": 3034,
      "UABvAHcAZQByAFMAaABl": 3035,
      "AcgBlAHMAdAByAGkAYwB": 3036,
      "AG8AbQBtAGEAbgBkACAA": 3037,
      "ABvAGwAaQBjAHkAIABVAG4": 3038,
      "gBvAFAAcgBvAGYAaQBsAGUAIAAtAE4AbwBuAEk": 3039,
      "AGMAdABpAHYAZQAgAC0ARQB4AGUAYwB1AHQAaQBvAG4AU": 3040,
      "0AGUAZAAgAC0ARQBuAGMAbwBkAGUAZABD": 3041,
      "AbgB0AGUAcgBhAGMAdABpAHYAZQAgAC0ARQB4AGUAYwB1AHQAaQBvAG4AU": 3042,
      "AGwAbAAgAC0ATgBvAFAAcgBvAGYAaQBsAGUAIAAtAE4AbwBuAEk": 3043,
      "UABvAHcAZQByAFMAaABlAGwAbAAgAC0ATgBvAFAAcgBvAGYAaQBsAGUAIAAtAE4AbwBuAEk": 3044,
      "AcgBlAHMAdAByAGkAYwB0AGUAZAAgAC0ARQBuAGMAbwBkAGUAZABD": 3045,
      "ABvAGwAaQBjAHkAIABVAG4AcgBlAHMAdAByAGkAYwB0AGUAZAAgAC0ARQBuAGMAbwBkAGUAZABD": 3046,
      "AbgB0AGUAcgBhAGMAdABpAHYAZQAgAC0ARQB4AGUAYwB1AHQAaQBvAG4AUABvAGwAaQBjAHkAIABVAG4AcgBlAHMAdAByAGkAYwB0AGUAZAAgAC0ARQBuAGMAbwBkAGUAZABD": 3047,
      "UABvAHcAZQByAFMAaABlAGwAbAAgAC0ATgBvAFAAcgBvAGYAaQBsAGUAIAAtAE4AbwBuAEkAbgB0AGUAcgBhAGMAdABpAHYAZQAgAC0ARQB4AGUAYwB1AHQAaQBvAG4AUABvAGwAaQBjAHkAIABVAG4AcgBlAHMAdAByAGkAYwB0AGUAZAAgAC0ARQBuAGMAbwBkAGUAZABD": 3048,
      "UABvAHcAZQByAFMAaABlAGwAbAAgAC0ATgBvAFAAcgBvAGYAaQBsAGUAIAAtAE4AbwBuAEkAbgB0AGUAcgBhAGMAdABpAHYAZQAgAC0ARQB4AGUAYwB1AHQAaQBvAG4AUABvAGwAaQBjAHkAIABVAG4AcgBlAHMAdAByAGkAYwB0AGUAZAAgAC0ARQBuAGMAbwBkAGUAZABDAG8AbQBtAGEAbgBkACAA": 3049,
      "FO": 3050,
      "000000": 3051,
      "Array": 3052,
      "ocation": 3053,
      "amed": 3054,
      "449": 3055,
      "201": 3056,
      "\",,": 3057,
      "AZwB": 3058,
      "REGIST": 3059,
      "b4": 3060,
      "11f": 3061,
      "egr": 3062,
      "0x7": 3063,
      "Load": 3064,
      "1504": 3065,
      "output": 3066,
      "16T17": 3067,
      "d20": 3068,
      "AFEAQQBn": 3069,
      "FF": 3070,
      "REGISTRY": 3071,
      "authentication": 3072,
      "ose": 3073,
      "Per": 3074,
      "mi": 3075,
      "bABBAE": 3076,
      "policy": 3077,
      "AEEAYgB": 3078,
      "\"\",": 3079,
      "UT": 3080,
      "ific": 3081,
      "WAR": 3082,
      "called": 3083,
      "AGMAQQB": 3084,
      "4673": 3085,
      "ventory": 3086,
      "ERV": 3087,
      "AQQBHAGsAQQB": 3088,
      "s_": 3089,
      "Common": 3090,
      "rigg": 3091,
      "SERV": 3092,
      "wM": 3093,
      ")(?)(?)(?)(?": 3094,
      "187": 3095,
      "oper": 3096,
      "EXE": 3097,
      "imum": 3098,
      "ential": 3099,
      "IsPresent": 3100,
      "env": 3101,
      "Product": 3102,
      "fs": 3103,
      "Kerberos": 3104,
      "buil": 3105,
      "f1c": 3106,
      "IAZwBC": 3107,
      "TE_": 3108,
      "QQ": 3109,
      "umer": 3110,
      "138587": 3111,
      "397273": 3112,
      "877397273": 3113,
      "097741": 3114,
      "1504097741": 3115,
      "138587051": 3116,
      "were": 3117,
      "60f6": 3118,
      "264": 3119,
      "AQQBHADgAQQB": 3120,
      "AQQBEAEUAQQB": 3121,
      "instance": 3122,
      "Gener": 3123,
      "member": 3124,
      "redential": 3125,
      "Thread": 3126,
      "Display": 3127,
      "row": 3128,
      "AFc": 3129,
      "WRI": 3130,
      "ZgB": 3131,
      "58f": 3132,
      "IAQQBC": 3133,
      "756": 3134,
      "Inventory": 3135,
      "ler": 3136,
      "MABBAE": 3137,
      "cAVQBBAG": 3138,
      "also": 3139,
      "configur": 3140,
      "requested": 3141,
      "AEEAYQBRAEIA": 3142,
      "ABBAEcAT": 3143,
      "INFO": 3144,
      "Store": 3145,
      "Modifying": 3146,
      "Nlcn": 3147,
      "DAD": 3148,
      "ze": 3149,
      "AEEAQwBBAEEAZgB": 3150,
      "core_31bf3856ad364e35_10": 3151,
      "NTLM": 3152,
      "match": 3153,
      "WRITE_": 3154,
      "AGcAQQA": 3155,
      "ICE": 3156,
      "BAFU": 3157,
      "QAUQBC": 3158,
      "types": 3159,
      "AHcAQQBE": 3160,
      "]]": 3161,
      "MethodParameter": 3162,
      "Collections": 3163,
      "dp": 3164,
      "ys": 3165,
      "aunch": 3166,
      "AEEASABR": 3167,
      "cAV": 3168,
      "AQQBF": 3169,
      "985a": 3170,
      "QAQQBCAG8": 3171,
      "gh": 3172,
      "bl": 3173,
      "692": 3174,
      "546_none_": 3175,
      "5c40": 3176,
      "GUID": 3177,
      "ef": 3178,
      "8766": 3179,
      "cim": 3180,
      "4b15": 3181,
      "any": 3182,
      "175": 3183,
      "gAVQBBAG": 3184,
      "ScriptBlock": 3185,
      "gATQBBAG": 3186,
      "wBBAEEA": 3187,
      "1853b": 3188,
      "3cf1c": 3189,
      "a0c1853b": 3190,
      "58f985a": 3191,
      "3cf1c58f985a": 3192,
      "007": 3193,
      "AQQBCAGwAQQBH": 3194,
      "wAwAEEASQBBAEEA": 3195,
      "DADQAQQB": 3196,
      "22T23": 3197,
      ",,,,,,,,,,,,,,,,,,,,,,,,,,,,,,,,,,,,,,,,,,,,,,,,,,,,,,,,,,,,,,,,,,,,,,,,,,,,,,,,,,,,,,,,,,,,,,,,,,,,,,,,,,,,,,,,,,,,,,,,,,,,,,,,,,,,,,,,,,,,,,,,,,,,,,,,,,,,,,,,,,,,,,,,,,,,,,,,,,,,,,,,,,,,,,,,,,,,,,,,,,,,,,,,,,,,,,,,,,,,,,,,,,,,,,,,,,,,,,,,,,,,,,,,,,,,,,,,,,,,,,,,,,,,,,,,,,,,,,,,,,,,,,,,,,,,,,,,,,,,,,,,,,,,,,,,,,,,,,,,": 3198,
      "Leng": 3199,
      "Length": 3200,
      "Packages": 3201,
      "AEEAQgA": 3202,
      "Description": 3203,
      "AZwBCAHo": 3204,
      "NABBAEcA": 3205,
      "Test": 3206,
      "728": 3207,
      "ali": 3208,
      "Debug": 3209,
      "zon": 3210,
      "Sp": 3211,
      "PI": 3212,
      "ModelWrapper": 3213,
      "61": 3214,
      "anted": 3215,
      "IE": 3216,
      "91": 3217,
      "2Vy": 3218,
      "ous": 3219,
      "zAEEARwBr": 3220,
      "jAEEAQgBzAEEARwBr": 3221,
      "jAEEAQgBzAEEARwBrAEEAZABBAEIA": 3222,
      "RAEEAS": 3223,
      "IAbABBAEgA": 3224,
      "'$": 3225,
      "QAUQBCADAAQQB": 3226,
      "ADM": 3227,
      "IAQQBCAHM": 3228,
      "AQQBBAG8AQQB": 3229,
      "gAVQBBAGIAQQBCAHM": 3230,
      "SM": 3231,
      "SOFT": 3232,
      "Gr": 3233,
      "Null": 3234,
      "Operating": 3235,
      "1ff5": 3236,
      "BAHcAQQBE": 3237,
      "us_": 3238,
      "JAGcAQgB": 3239,
      "AEEASQBBAEEAeQBBAE": 3240,
      "aABBAEgA": 3241,
      "AQQBHADgAQQBiAGcAQgB": 3242,
      "cAVQBBAGU": 3243,
      "level": 3244,
      "ker": 3245,
      "tom": 3246,
      "ha": 3247,
      "BAHcAQQBEAEUAQQB": 3248,
      "0AQQBBAHcAQQBEAEUAQQB": 3249,
      "contains": 3250,
      "0AQQBkAEEAQgB5": 3251,
      "MAdwBBAE": 3252,
      "SgBnAEIA": 3253,
      "YAHcAQgAz": 3254,
      "rAEEAQwBBAEEAS": 3255,
      "QBRAEIAdwBBAE": 3256,
      "AdwBCAHcAQQB": 3257,
      "awBBAEcAVQBBAGU": 3258,
      "QBRAEIAM": 3259,
      "gAQQBBAFoAUQBCAHkAQQB": 3260,
      "AGIAQQBG": 3261,
      "AEEAWgBRAEIANABBAEcA": 3262,
      "gAQQBBAGQAQQBC": 3263,
      "BAFkAdwBCAHcAQQB": 3264,
      "gBBAEIAdQBBAE": 3265,
      "AE0AQQBYAHcAQgAz": 3266,
      "2AEEARwAwAEEASQBBAEEA": 3267,
      "AEEASABJAEEAWQBRAEIAdwBBAE": 3268,
      "kAQQBCAGIAQQBG": 3269,
      "VQBBAE0AQQBBAHcAQQBEAEUAQQB": 3270,
      "AEEAQQBvAEEAS": 3271,
      "ZAHcAQgB2AEEARwAwAEEASQBBAEEA": 3272,
      "MgBBAEQAVQBBAE0AQQBBAHcAQQBEAEUAQQB": 3273,
      "agBBAEcAZwB": 3274,
      "JAEEAQQArAEEAQwBBAEEAS": 3275,
      "ABBAEEAW": 3276,
      "UABvAHcAZQByAFMAaABlAGwAbAAgAC0ATgBvAFAAcgBvAGYAaQBsAGUAIAAtAE4AbwBuAEkAbgB0AGUAcgBhAGMAdABpAHYAZQAgAC0ARQB4AGUAYwB1AHQAaQBvAG4AUABvAGwAaQBjAHkAIABVAG4AcgBlAHMAdAByAGkAYwB0AGUAZAAgAC0ARQBuAGMAbwBkAGUAZABDAG8AbQBtAGEAbgBkACAASgBnAEIA": 3277,
      "AQQBCAGwAQQBHAE0AQQBYAHcAQgAz": 3278,
      "DADQAQQBZAHcAQgB2AEEARwAwAEEASQBBAEEA": 3279,
      "gAVQBBAGIAQQBCAHMAQQBBAG8AQQB": 3280,
      "awBBAEcAVQBBAGUAQQBCAGwAQQBHAE0AQQBYAHcAQgAz": 3281,
      "BAFkAdwBCAHcAQQBDADQAQQBZAHcAQgB2AEEARwAwAEEASQBBAEEA": 3282,
      "gBBAEIAdQBBAEgAVQBBAGIAQQBCAHMAQQBBAG8AQQB": 3283,
      "AEEASABJAEEAWQBRAEIAdwBBAEgAQQBBAFoAUQBCAHkAQQB": 3284,
      "MgBBAEQAVQBBAE0AQQBBAHcAQQBEAEUAQQBJAEEAQQArAEEAQwBBAEEAS": 3285,
      "agBBAEcAZwBBAFkAdwBCAHcAQQBDADQAQQBZAHcAQgB2AEEARwAwAEEASQBBAEEA": 3286,
      "UABvAHcAZQByAFMAaABlAGwAbAAgAC0ATgBvAFAAcgBvAGYAaQBsAGUAIAAtAE4AbwBuAEkAbgB0AGUAcgBhAGMAdABpAHYAZQAgAC0ARQB4AGUAYwB1AHQAaQBvAG4AUABvAGwAaQBjAHkAIABVAG4AcgBlAHMAdAByAGkAYwB0AGUAZAAgAC0ARQBuAGMAbwBkAGUAZABDAG8AbQBtAGEAbgBkACAASgBnAEIAagBBAEcAZwBBAFkAdwBCAHcAQQBDADQAQQBZAHcAQgB2AEEARwAwAEEASQBBAEEA": 3287,
      "awBBAEcAVQBBAGUAQQBCAGwAQQBHAE0AQQBYAHcAQgAzAEEASABJAEEAWQBRAEIAdwBBAEgAQQBBAFoAUQBCAHkAQQB": 3288,
      "MgBBAEQAVQBBAE0AQQBBAHcAQQBEAEUAQQBJAEEAQQArAEEAQwBBAEEASgBBAEIAdQBBAEgAVQBBAGIAQQBCAHMAQQBBAG8AQQB": 3289,
      "UABvAHcAZQByAFMAaABlAGwAbAAgAC0ATgBvAFAAcgBvAGYAaQBsAGUAIAAtAE4AbwBuAEkAbgB0AGUAcgBhAGMAdABpAHYAZQAgAC0ARQB4AGUAYwB1AHQAaQBvAG4AUABvAGwAaQBjAHkAIABVAG4AcgBlAHMAdAByAGkAYwB0AGUAZAAgAC0ARQBuAGMAbwBkAGUAZABDAG8AbQBtAGEAbgBkACAASgBnAEIAagBBAEcAZwBBAFkAdwBCAHcAQQBDADQAQQBZAHcAQgB2AEEARwAwAEEASQBBAEEAMgBBAEQAVQBBAE0AQQBBAHcAQQBEAEUAQQBJAEEAQQArAEEAQwBBAEEASgBBAEIAdQBBAEgAVQBBAGIAQQBCAHMAQQBBAG8AQQB": 3290,
      "built": 3291,
      "CH": 3292,
      "601": 3293,
      "Compat": 3294,
      "GC": 3295,
      ",,,,,,,,,,,,,,,,,,,,": 3296,
      "station": 3297,
      "#>": 3298,
      "<#": 3299,
      "ConvertFrom": 3300,
      "5j": 3301,
      "uch": 3302,
      "0x6": 3303,
      "HR": 3304,
      "AEEARwBVAEEAYwBnAEIA": 3305,
      "a2": 3306,
      "AFEAQQBj": 3307,
      "cf": 3308,
      "214": 3309,
      ")\",": 3310,
      "most": 3311,
      "MP": 3312,
      "Cim": 3313,
      "Enabled": 3314,
      "Bindings": 3315,
      "]@{": 3316,
      "006": 3317,
      "\"['": 3318,
      "_mode": 3319,
      "000": 3320,
      "SERVICE": 3321,
      "GE": 3322,
      "ense": 3323,
      "uZ": 3324,
      "osition": 3325,
      "InventoryApplication": 3326,
      "ParameterType": 3327,
      "()]": 3328,
      "IsValue": 3329,
      "IsValuePresent": 3330,
      ",,,,,,,,,,,,,,,,,,,,,,": 3331,
      "Ext": 3332,
      "578": 3333,
      "NI": 3334,
      "command": 3335,
      "__cmdletization_defaultValueIsPresent": 3336,
      "Granted": 3337,
      "inf": 3338,
      "216": 3339,
      "AHA": 3340,
      "110": 3341,
      "conhost": 3342,
      "Te": 3343,
      "oses": 3344,
      "D5": 3345,
      "LAB": 3346,
      "AEEASABRAEEA": 3347,
      "ams": 3348,
      "InventoryApplicationFile": 3349,
      "Device": 3350,
      "ByAssociatedNet": 3351,
      "operation": 3352,
      "pped": 3353,
      "17d": 3354,
      "Backup": 3355,
      "Workstation": 3356,
      "empty": 3357,
      "pol": 3358,
      "throw": 3359,
      "ximum": 3360,
      "},,,,,,,,,,,,,,,,,,,,,,,,,,,,,,,,": 3361,
      "878": 3362,
      "choose": 3363,
      "LE": 3364,
      "ss": 3365,
      "RpZ2l": 3366,
      "a1": 3367,
      "804": 3368,
      "auditpol": 3369,
      ",$": 3370,
      "AQQBCAGwAQQBDAEEAQQBMAFEAQgB": 3371,
      "adc": 3372,
      "such": 3373,
      "SHA": 3374,
      "4dd": 3375,
      "Hash": 3376,
      "SYNO": 3377,
      "PSIS": 3378,
      "SYNOPSIS": 3379,
      "FB": 3380,
      "1134": 3381,
      "05T08": 3382,
      "ues": 3383,
      "raw": 3384,
      "EAUQBC": 3385,
      "WARE": 3386,
      "2e1": 3387,
      "5f7": 3388,
      "1_en": 3389,
      "20T07": 3390,
      "ba6": 3391,
      "atteries": 3392,
      "SOFTWARE": 3393,
      "configured": 3394,
      "305": 3395,
      "svc": 3396,
      "maximum": 3397,
      "Autom": 3398,
      "itch": 3399,
      "4036": 3400,
      "Trigg": 3401,
      "vers": 3402,
      "End": 3403,
      "OnB": 3404,
      "Lab": 3405,
      "408": 3406,
      "block": 3407,
      "OnBatteries": 3408,
      "922": 3409,
      "ownload": 3410,
      "MR": 3411,
      "gBnAEEA": 3412,
      "objectModelWrapper": 3413,
      "defin": 3414,
      "__cmdletization_objectModelWrapper": 3415,
      "accord": 3416,
      "std": 3417,
      "values": 3418,
      "f39": 3419,
      "Tel": 3420,
      ",,,,,,,,,,,,,{": 3421,
      "OnIdle": 3422,
      "AEEAZABRAEIA": 3423,
      "Guid": 3424,
      "d2": 3425,
      "\\$": 3426,
      "Label": 3427,
      "Runner": 3428,
      "chooses": 3429,
      "accordance": 3430,
      "46b": 3431,
      "CompatTel": 3432,
      "CompatTelRunner": 3433,
      "Transited": 3434,
      "apt": 3435,
      "920": 3436,
      "2Vyd": 3437,
      "052": 3438,
      "82d": 3439,
      "62e1": 3440,
      "1869": 3441,
      "upd": 3442,
      "ValidateSet": 3443,
      "text": 3444,
      "b6": 3445,
      "_CO": 3446,
      "Def": 3447,
      "089a": 3448,
      "AEEAYwBnAEI": 3449,
      "DVQQ": 3450,
      "rator": 3451,
      "9a47": 3452,
      "AEEAQgBsAEEASAB": 3453,
      "leng": 3454,
      "Position": 3455,
      "length": 3456,
      "ust": 3457,
      "778": 3458,
      "2c64": 3459,
      "6e1": 3460,
      "b205": 3461,
      "guments": 3462,
      ",,,,,,,,,,,,,,,,,,,,,": 3463,
      "AAAA": 3464,
      "attribut": 3465,
      "cAOABBAG": 3466,
      "wBBAFE": 3467,
      "e248": 3468,
      "278": 3469,
      "0017d": 3470,
      "e80b7": 3471,
      "886820": 3472,
      "1869e80b7": 3473,
      "089ae248": 3474,
      "0017d1869e80b7": 3475,
      "88682082d": 3476,
      "089ae24888682082d": 3477,
      "0017d1869e80b7ba6": 3478,
      "LmN": 3479,
      "__cmdletization_value": 3480,
      "NTRO": 3481,
      "Sens": 3482,
      "0x8": 3483,
      "NTROL": 3484,
      "7036": 3485,
      "b42": 3486,
      "_CONTROL": 3487,
      "py": 3488,
      "AQQBBAE0": 3489,
      "fully": 3490,
      "MAMAB": 3491,
      "cale": 3492,
      "Or": 3493,
      "gs": 3494,
      "73c": 3495,
      "AEEARwBrAEEAYgBnAEIA": 3496,
      "attribute": 3497,
      "mazon": 3498,
      "Amazon": 3499,
      "ava": 3500,
      "0d601": 3501,
      "rel": 3502,
      "win32": 3503,
      "sub": 3504,
      "4624": 3505,
      "170": 3506,
      "poq": 3507,
      "poqexec": 3508,
      "9f": 3509,
      "itive": 3510,
      "protocol": 3511,
      "Continue": 3512,
      "AdwBBAG": 3513,
      "ning": 3514,
      "contr": 3515,
      ",,,,,,,,,,,,,,,,,,,,,,,,,,,": 3516,
      "Sensitive": 3517,
      "ional": 3518,
      "0xc": 3519,
      "ModuleName": 3520,
      "contrast": 3521,
      "ErrorAction": 3522,
      "AdwBB": 3523,
      "will": 3524,
      "165": 3525,
      "mp": 3526,
      "imperson": 3527,
      "2532": 3528,
      "SQBBAGI": 3529,
      "opped": 3530,
      "successfully": 3531,
      "Author": 3532,
      ",\\": 3533,
      "DisplayName": 3534,
      "catch": 3535,
      "a3c": 3536,
      "AFQA": 3537,
      "031": 3538,
      "AHkAQQBI": 3539,
      "Output": 3540,
      "Client": 3541,
      "QBBAEEA": 3542,
      "SI": 3543,
      "aABBAEcA": 3544,
      "scale": 3545,
      "Helper": 3546,
      "383": 3547,
      "'],,,,": 3548,
      "time": 3549,
      "ience": 3550,
      "AQQBIAE0AQQB": 3551,
      "RunOnly": 3552,
      "RunOnlyIf": 3553,
      "one": 3554,
      "__cmdletization_method": 3555,
      "(@": 3556,
      "QA4": 3557,
      "Download": 3558,
      "cAQQBE": 3559,
      "ADAAQQBJAEEAQQB": 3560,
      "1c00": 3561,
      "bgBBAE": 3562,
      "dri": 3563,
      "Warn": 3564,
      "AEEAZABBAEIAb": 3565,
      "AEEAZQBBAE": 3566,
      "AEEARwBVAEEAZQBBAE": 3567,
      "bc4": 3568,
      "Automation": 3569,
      "ZAFEAQgAw": 3570,
      "AEEARwBrAEEAYgBnAEIAbgBBAE": 3571,
      "AEEARwBrAEEAYgBnAEIAbgBBAEYAT": 3572,
      "ZQBRAEIA": 3573,
      "e397": 3574,
      "NotNull": 3575,
      "iAFEAQgB3": 3576,
      "check_mode": 3577,
      "ValidateNotNull": 3578,
      "Shared": 3579,
      "SgBBAEcA": 3580,
      "271": 3581,
      "Integr": 3582,
      "AcwBBAE": 3583,
      "PAEEARwBFAEEAY": 3584,
      "AEEAQQBnAEEAR": 3585,
      "AEEASABBAEEAYwBBAE": 3586,
      "gBRAEIAbABBAE": 3587,
      "PAEEARwBFAEEAYgBRAEIAbABBAE": 3588,
      "Launch": 3589,
      "exist": 3590,
      "IAcABBAEcA": 3591,
      "2702": 3592,
      "er_": 3593,
      "938": 3594,
      "400": 3595,
      "DAGcAQQB": 3596,
      "YQBRAEIAdQBBAE": 3597,
      "AGwAQQBI": 3598,
      "Item": 3599,
      "PQA": 3600,
      "9fc": 3601,
      "0d1": 3602,
      "kAQQBDAEEAQQB": 3603,
      "BAFkAUQBC": 3604,
      "paramet": 3605,
      "\\$$": 3606,
      "2AEEASABR": 3607,
      ",,,,,,,,,,,,,,,,,,,,,,,,": 3608,
      "SQBBAEkAQQB": 3609,
      "RAEEAN": 3610,
      "311f": 3611,
      "000000001c00": 3612,
      "link": 3613,
      "AEEARwBNAEEAYwBnAEI": 3614,
      "WQBBAEkAQQBBAG": 3615,
      "AEEAQwBnAEIA": 3616,
      "SgBBAEcAWQBBAEkAQQBBAG": 3617,
      "SgBBAEcAWQBBAEkAQQBBAG8AQQB": 3618,
      "654b": 3619,
      "a3e7": 3620,
      "Defender": 3621,
      "5bd": 3622,
      "AEEASABJAEEAYQBRAEIA": 3623,
      "Call": 3624,
      "Impersonation": 3625,
      "CAL": 3626,
      "Lic": 3627,
      "LOCAL": 3628,
      "@()": 3629,
      "Wh": 3630,
      "Hard": 3631,
      "untime": 3632,
      "setup": 3633,
      "Channel": 3634,
      "Options": 3635,
      "ration": 3636,
      "IF": 3637,
      "warnings": 3638,
      "AEEAQwBRAEEA": 3639,
      ",-,-,": 3640,
      "BADkAQQBDAEEAQQB": 3641,
      "AQQBFAFUAQQB": 3642,
      ")][": 3643,
      "sAQQBIAE0AQQB": 3644,
      "gAQQBBAFkAUQBC": 3645,
      "ZgBBAEgAQQBBAFkAUQBC": 3646,
      "jAEEAQgBzAEEARwBrAEEAZABBAEIAZgBBAEgAQQBBAFkAUQBC": 3647,
      "AHkAQQBIAFEAQQBj": 3648,
      "sAQQBIAE0AQQBjAEEAQgBzAEEARwBrAEEAZABBAEIAZgBBAEgAQQBBAFkAUQBC": 3649,
      "sAQQBIAE0AQQBjAEEAQgBzAEEARwBrAEEAZABBAEIAZgBBAEgAQQBBAFkAUQBCAHkAQQBIAFEAQQBj": 3650,
      "RAEEASwBBAE": 3651,
      "WAGcAQgBo": 3652,
      "ADAAQQBDADAAQQB": 3653,
      "DAEEAQQBm": 3654,
      "iAGcAQgB2AEEASABR": 3655,
      "DADAAQQBiAGcAQgB2AEEASABR": 3656,
      "aABBAEcASQBBAGI": 3657,
      "IAcABBAEcAOABBAG": 3658,
      "AEEAQwBnAEIASgBBAEcAWQBBAEkAQQBBAG8AQQB": 3659,
      "AEEASABJAEEAYQBRAEIAaABBAEcASQBBAGI": 3660,
      "WAGcAQgBoAEEASABJAEEAYQBRAEIAaABBAEcASQBBAGI": 3661,
      "ADAAQQBDADAAQQBWAGcAQgBoAEEASABJAEEAYQBRAEIAaABBAEcASQBBAGI": 3662,
      "AEEAQwBnAEIASgBBAEcAWQBBAEkAQQBBAG8AQQBDADAAQQBiAGcAQgB2AEEASABR": 3663,
      "OfficeClickToRun": 3664,
      "cp": 3665,
      "ed_": 3666,
      "AEEAQgAx": 3667,
      "iter": 3668,
      "ong": 3669,
      "AEEAWgBRAEIAagBBAE": 3670,
      "308": 3671,
      "ilent": 3672,
      "dwBBAE": 3673,
      "call": 3674,
      "285": 3675,
      "AEEAQwBnAEEA": 3676,
      "gBRAEIAeQBBAE": 3677,
      "AFcAQQBHAEUAQQB": 3678,
      "QBBAFkAdwBC": 3679,
      "b5": 3680,
      "QAFEAQQBn": 3681,
      "iAHcAQgAz": 3682,
      "qAEEARwB": 3683,
      "BAEcAOABBAG": 3684,
      "AEEASwBBAEEA": 3685,
      "AdABBAEcAOABBAG": 3686,
      "AEEAQwBR": 3687,
      "DAEEAQQBQAFEAQQBn": 3688,
      "RAEIAdABBAEcAOABBAG": 3689,
      "QBBAFg": 3690,
      "gBJAEEAWgB": 3691,
      "gBBAEQAb": 3692,
      "JAEEAQQB5": 3693,
      "QAZwBCAGw": 3694,
      "cAQQBEADAAQQBJAEEAQQB": 3695,
      "SQBBAEkAQQBBADkAQQBDAEEAQQB": 3696,
      "qAEEARwBz": 3697,
      "RAEIAdABBAEcAOABBAGQAZwBCAGw": 3698,
      "gBJAEEAWgBRAEIAdABBAEcAOABBAGQAZwBCAGw": 3699,
      "sAQQBC": 3700,
      "MAMABBAFU": 3701,
      "Integrity": 3702,
      "gAQQBBAGQAUQBCADAAQQB": 3703,
      "QAZwBCAGg": 3704,
      "READ": 3705,
      "0x11": 3706,
      "point": 3707,
      "Teams": 3708,
      "MAGcAQgB": 3709,
      "ZQBRAEIAR": 3710,
      "},,,,,,,": 3711,
      "AGMAQQBj": 3712,
      "Silent": 3713,
      "4a09": 3714,
      "0542": 3715,
      "9017": 3716,
      "QU": 3717,
      "3AEEASQBBAEEAeQBBAE": 3718,
      "3AEEARwBVAEEAYwBnAEIA": 3719,
      "6AEEAQwBr": 3720,
      "EAZwBCAHo": 3721,
      "FAHcAQQB": 3722,
      "JAGcAQQB": 3723,
      "KAEEAQgBsAEEASAB": 3724,
      "LAEEAQwBR": 3725,
      "MAdwBCADAAQQBIAEkAQQB": 3726,
      "NwBBAEM": 3727,
      "PAGcAQQA": 3728,
      "QAEEASABBAEEA": 3729,
      "QAdwBCAHk": 3730,
      "UAEEASABBAEEA": 3731,
      "UAEEARwBNAEEAYwBnAEI": 3732,
      "VQBBAFkAdwBC": 3733,
      "XAHcAQgB": 3734,
      "YgBBAEI": 3735,
      "ZABBAE": 3736,
      "ZAFEAQgB3": 3737,
      "aAEEAQQB": 3738,
      "cAQQBBAE0": 3739,
      "iAEEAQgAx": 3740,
      "mAEEASABJAEEAW": 3741,
      "nAEEAWgBRAEIAagBBAE": 3742,
      "pAEEAQwBBAEEAZgB": 3743,
      "rAEEAQwBBAEEA": 3744,
      "rAEEARwBVAEEAZQBBAE": 3745,
      "wAEEAQwB": 3746,
      "wAEEAQQBvAEEAS": 3747,
      "AE0AQQBkAEEAQgB5": 3748,
      "IAaABBAEgA": 3749,
      "AQQBCAGc": 3750,
      "AEEAQQBDAGcAQQB": 3751,
      "AdwBCADM": 3752,
      "AQQBIAGMAQQBj": 3753,
      "AHkAQQBHAGsAQQB": 3754,
      "settings": 3755,
      "AQQBBAGQAQQBCAG8": 3756,
      "ADAAQQBPAGcAQQA": 3757,
      "AEUAQQBJAEEAQQB5": 3758,
      "IAbABBAEcAT": 3759,
      "AEEASQBnAEI": 3760,
      "AGYAQQBIAGMAQQBj": 3761,
      "AEEASABBAEEAWgBRAEIAeQBBAE": 3762,
      "QBBAGMAQQBCAHMAQQBHAGsAQQBkAEEAQgBQAEEASABBAEEA": 3763,
      "QAQQBCAHkAQQB": 3764,
      "QAQQBCAHkAQQBHAGsAQQB": 3765,
      "AEEARwBVAEEASQBBAEEAawBBAEgATQBBAGMAQQBCAHMAQQBHAGsAQQBkAEEAQgBmAEEASABBAEEAWQBRAEIAeQBBAEgAUQBBAGM": 3766,
      "AEEARwBVAEEASwBBAEEA": 3767,
      "AQQBIAEkAQQBiAHcAQgAz": 3768,
      "AQQBIAEkAQQBZAFEAQgB3": 3769,
      "AcABBAEgAUQBBAE": 3770,
      "AcABBAEgAQQBBAGQAQQBC": 3771,
      "awBBAEgATQBBAGMAQQBCAHMAQQBHAGsAQQBkAEEAQgBmAEEASABBAEEAWQBRAEIAeQBBAEgAUQBBAGMAdwBCAGI": 3772,
      "awBBAEgATQBBAGMAQQBCAHMAQQBHAGsAQQBkAEEAQgBmAEEASABBAEEAWQBRAEIAeQBBAEgAUQBBAGMAdwBBAG": 3773,
      "AQQBGADAAQQBPAGcAQQA": 3774,
      "AQQBHAEUAQQBjAEEAQgB": 3775,
      "AQQBHAEUAQQBaAEEAQQB": 3776,
      "gBBAEcANABBAG": 3777,
      "AHYAQQBHAEUAQQBaAEEAQQB": 3778,
      "nAEEARABBAEEAW": 3779,
      "aAFEAQgB1AEEARwBj": 3780,
      "aAFEAQgB6AEEAQwBr": 3781,
      "AEEAQwBBAEEASQBnAEI": 3782,
      "AHoAQQBGADAAQQBPAGcAQQA": 3783,
      "AQQBHAHcAQQBhAFEAQgB": 3784,
      "AQQBHAHcAQQBiAHcAQgB": 3785,
      "AQQBHAFUAQQBZAFEAQgAw": 3786,
      "BAD0A": 3787,
      "hAFEAQgB1AEEARwBj": 3788,
      "ZgBBAEgATQBBAG": 3789,
      "2AEEARgBJAEEAWgBRAEIAdABBAEcAOABBAGQAZwBCAGw": 3790,
      "AGcAQgBoAEEASABBAEEAYwBBAE": 3791,
      "AcABBAEcANABBAG": 3792,
      "YwBBAEIAaABBAEgA": 3793,
      "YATQBBAFoAUQBC": 3794,
      "AEEAQwBrAEEASQBBAEIA": 3795,
      "AQQBEAEEAQQBYAFEAQQB": 3796,
      "AQQBEAEEAQQBJAGcAQQB": 3797,
      "AdwBCAHkAQQBHAFUAQQBZAFEAQgAw": 3798,
      "YAFEAQQBLAEEAQwBR": 3799,
      "YAOABBAGMAdwBCADAAQQBIAEkAQQB": 3800,
      "YAOABBAGQAdwBCAHk": 3801,
      "AdwBCAGIAQQBEAEUAQQB": 3802,
      "AEEASQBBAEEAawBBAEgATQBBAGMAQQBCAHMAQQBHAGsAQQBkAEEAQgBmAEEASABBAEEAWQBRAEIAeQBBAEgAUQBBAGMAdwBB": 3803,
      "wBBAEMAQQBBAEwAUQBCAGwAQQBI": 3804,
      "wBBAEMAQQBBAEwAUQBCAFcAQQBHAEUAQQB": 3805,
      "AdwBCADAAQQBIAEkAQQBhAFEAQgB1AEEARwBj": 3806,
      "awBBAGIAQQBC": 3807,
      "AHUAQQBFAHcAQQB": 3808,
      "MAQQBBAGEAZwBCAHo": 3809,
      "AEEAWABRAEEAN": 3810,
      "AEMAQQBHAHcAQQBiAHcAQgB": 3811,
      "IAZwBCAHoAQQBGADAAQQBPAGcAQQA": 3812,
      "MABBAEMAMABBAFU": 3813,
      "IAbABBAEgASQBBAEkAQQBBADkAQQBDAEEAQQB": 3814,
      "JAGcAQgBnAEEARABBAEEAW": 3815,
      "AQQBHADgAQQBiAGcAQgBmAEEASABJAEEAW": 3816,
      "MAdwBBAEkAQQBCAGIAQQBG": 3817,
      "QBRAEIAMwBBAEMAQQBBAEwAUQBCAFcAQQBHAEUAQQB": 3818,
      "AEEAWgBRAEIANABBAEcAVQBBAFkAdwBC": 3819,
      "awBBAEcAVQBBAGUAQQBCAGwAQQBHAE0AQQBYAHcAQgAzAEEASABJAEEAWQBRAEIAdwBBAEgAQQBBAFoAUQBCAHkAQQBBAD0A": 3820,
      "UABvAHcAZQByAFMAaABlAGwAbAAgAC0ATgBvAFAAcgBvAGYAaQBsAGUAIAAtAE4AbwBuAEkAbgB0AGUAcgBhAGMAdABpAHYAZQAgAC0ARQB4AGUAYwB1AHQAaQBvAG4AUABvAGwAaQBjAHkAIABVAG4AcgBlAHMAdAByAGkAYwB0AGUAZAAgAC0ARQBuAGMAbwBkAGUAZABDAG8AbQBtAGEAbgBkACAASgBnAEIAagBBAEcAZwBBAFkAdwBCAHcAQQBDADQAQQBZAHcAQgB2AEEARwAwAEEASQBBAEEAMgBBAEQAVQBBAE0AQQBBAHcAQQBEAEUAQQBJAEEAQQArAEEAQwBBAEEASgBBAEIAdQBBAEgAVQBBAGIAQQBCAHMAQQBBAG8AQQBKAEEAQgBsAEEASAB": 3821,
      "AEEASABRAEEAZQBRAEIAR": 3822,
      "AQQBCAGwAQQBDAEEAQQBMAFEAQgBPAEEARwBFAEEAYgBRAEIAbABBAE": 3823,
      "gBnAEEAawBBAEcAVQBBAGUAQQBCAGwAQQBHAE0AQQBYAHcAQgAzAEEASABJAEEAWQBRAEIAdwBBAEgAQQBBAFoAUQBCAHkAQQBBAD0A": 3824,
      "AEEAZABRAEIAMABBAEMAMABBAFU": 3825,
      "wBBAFEAdwBCAHkAQQBHAFUAQQBZAFEAQgAw": 3826,
      "QBBAEEAdwBBAE": 3827,
      "QA4AEEAZABRAEIAMABBAEMAMABBAFU": 3828,
      "AEEAZABBAEIAbwBBAEMAQQBBAEwAUQBCAGwAQQBI": 3829,
      "AEEARwBrAEEAYgBnAEIAbgBBAEYATQBBAGMAQQBCAHMAQQBHAGsAQQBkAEEAQgBQAEEASABBAEEA": 3830,
      "iAFEAQgB3AEEASABRAEEAZQBRAEIAR": 3831,
      "AEEAQQBnAEEARQA4AEEAZABRAEIAMABBAEMAMABBAFU": 3832,
      "YQBRAEIAdQBBAEgAQQBBAGQAUQBCADAAQQB": 3833,
      "AEEAQwBRAEEAYQBRAEIAdQBBAEgAQQBBAGQAUQBCADAAQQB": 3834,
      "AQQBFAFUAQQBiAFEAQgB3AEEASABRAEEAZQBRAEIAR": 3835,
      "RAEEASwBBAEYATQBBAFoAUQBC": 3836,
      "DAEEAQQBmAEEAQQBnAEEARQA4AEEAZABRAEIAMABBAEMAMABBAFU": 3837,
      "IAcABBAEcAOABBAGIAZwBCAHoAQQBGADAAQQBPAGcAQQA": 3838,
      "ADAAQQBDADAAQQBWAGcAQgBoAEEASABJAEEAYQBRAEIAaABBAEcASQBBAGIAQQBCAGwAQQBDAEEAQQBMAFEAQgBPAEEARwBFAEEAYgBRAEIAbABBAE": 3839,
      "AEEAQwBnAEIASgBBAEcAWQBBAEkAQQBBAG8AQQBDADAAQQBiAGcAQgB2AEEASABRAEEASQBBAEEAawBBAEgATQBBAGMAQQBCAHMAQQBHAGsAQQBkAEEAQgBmAEEASABBAEEAWQBRAEIAeQBBAEgAUQBBAGMAdwBB": 3840,
      "AEEAQwBnAEEAawBBAEgATQBBAGMAQQBCAHMAQQBHAGsAQQBkAEEAQgBmAEEASABBAEEAWQBRAEIAeQBBAEgAUQBBAGMAdwBBAG": 3841,
      "DAEEAQQBQAFEAQQBnAEEAQwBRAEEAYQBRAEIAdQBBAEgAQQBBAGQAUQBCADAAQQB": 3842,
      "QBBAFgAdwBCADM": 3843,
      "gBBAEQAbwBBAFEAdwBCAHkAQQBHAFUAQQBZAFEAQgAw": 3844,
      "cAQQBEADAAQQBJAEEAQQBrAEEARwBVAEEAZQBBAE": 3845,
      "qAEEARwBzAEEAWABRAEEAN": 3846,
      "sAQQBCAEEAQQBDAGcAQQB": 3847,
      "QAZwBCAGgAQQBHAHcAQQBhAFEAQgB": 3848,
      "MAGcAQgBUAEEASABBAEEA": 3849,
      "3AEEASQBBAEEAeQBBAEMAdwBBAEkAQQBCAGIAQQBG": 3850,
      "3AEEARwBVAEEAYwBnAEIAZgBBAEgATQBBAG": 3851,
      "NwBBAEMAQQBBAGQAQQBCAG8": 3852,
      "UAEEARwBNAEEAYwBnAEIAcABBAEgAQQBBAGQAQQBC": 3853,
      "XAHcAQgBUAEEARwBNAEEAYwBnAEIAcABBAEgAQQBBAGQAQQBC": 3854,
      "YgBBAEIAcABBAEgAUQBBAE": 3855,
      "ZABBAEIAcABBAEcAOABBAGIAZwBCAHoAQQBGADAAQQBPAGcAQQA": 3856,
      "cAQQBBAE0AQQBCAGc": 3857,
      "iAEEAQgAxAEEARwBVAEEASQBBAEEAawBBAEgATQBBAGMAQQBCAHMAQQBHAGsAQQBkAEEAQgBmAEEASABBAEEAWQBRAEIAeQBBAEgAUQBBAGM": 3858,
      "nAEEAWgBRAEIAagBBAEYAOABBAGQAdwBCAHk": 3859,
      "pAEEAQwBBAEEAZgBRAEEASwBBAEYATQBBAFoAUQBC": 3860,
      "rAEEAQwBBAEEAYwBBAEIAaABBAEgA": 3861,
      "wAEEAQwB3AEEASQBBAEEAeQBBAEMAdwBBAEkAQQBCAGIAQQBG": 3862,
      "wAEEAQQBvAEEASgBnAEEAawBBAEcAVQBBAGUAQQBCAGwAQQBHAE0AQQBYAHcAQgAzAEEASABJAEEAWQBRAEIAdwBBAEgAQQBBAFoAUQBCAHkAQQBBAD0A": 3863,
      "AE0AQQBkAEEAQgB5AEEARwBrAEEAYgBnAEIAbgBBAEYATQBBAGMAQQBCAHMAQQBHAGsAQQBkAEEAQgBQAEEASABBAEEA": 3864,
      "AEUAQQBJAEEAQQB5AEEAQwBrAEEASQBBAEIA": 3865,
      "IAbABBAEcATQBBAFgAdwBCADM": 3866,
      "AGYAQQBIAGMAQQBjAGcAQgBoAEEASABBAEEAYwBBAE": 3867,
      "AEEASABBAEEAWgBRAEIAeQBBAEYAOABBAGMAdwBCADAAQQBIAEkAQQB": 3868,
      "QAQQBCAHkAQQBDAEEAQQBQAFEAQQBnAEEAQwBRAEEAYQBRAEIAdQBBAEgAQQBBAGQAUQBCADAAQQB": 3869,
      "QAQQBCAHkAQQBHAGsAQQBaAFEAQgB6AEEAQwBr": 3870,
      "AEEARwBVAEEASwBBAEEAawBBAEgATQBBAGMAQQBCAHMAQQBHAGsAQQBkAEEAQgBmAEEASABBAEEAWQBRAEIAeQBBAEgAUQBBAGMAdwBCAGI": 3871,
      "AQQBIAEkAQQBiAHcAQgAzAEEAQwBBAEEASQBnAEI": 3872,
      "AQQBIAEkAQQBZAFEAQgB3AEEASABBAEEAWgBRAEIAeQBBAEYAOABBAGMAdwBCADAAQQBIAEkAQQB": 3873,
      "AQQBHAEUAQQBjAEEAQgB3AEEARwBVAEEAYwBnAEIAZgBBAEgATQBBAG": 3874,
      "gBBAEcANABBAGQAQQBCAHkAQQBHAGsAQQBaAFEAQgB6AEEAQwBr": 3875,
      "AHYAQQBHAEUAQQBaAEEAQQBpAEEAQwBBAEEAZgBRAEEASwBBAEYATQBBAFoAUQBC": 3876,
      "aAFEAQgB1AEEARwBjAEEAZABBAEIAbwBBAEMAQQBBAEwAUQBCAGwAQQBI": 3877,
      "2AEEARgBJAEEAWgBRAEIAdABBAEcAOABBAGQAZwBCAGwAQQBFAFUAQQBiAFEAQgB3AEEASABRAEEAZQBRAEIAR": 3878,
      "AcABBAEcANABBAGQAZwBCAGgAQQBHAHcAQQBhAFEAQgB": 3879,
      "AQQBEAEEAQQBYAFEAQQBwAEEAQQBvAEEASgBnAEEAawBBAEcAVQBBAGUAQQBCAGwAQQBHAE0AQQBYAHcAQgAzAEEASABJAEEAWQBRAEIAdwBBAEgAQQBBAFoAUQBCAHkAQQBBAD0A": 3880,
      "AQQBEAEEAQQBJAGcAQQBwAEEAQwB3AEEASQBBAEEAeQBBAEMAdwBBAEkAQQBCAGIAQQBG": 3881,
      "YAFEAQQBLAEEAQwBRAEEAWgBRAEIANABBAEcAVQBBAFkAdwBC": 3882,
      "AdwBCAGIAQQBEAEUAQQBYAFEAQQBLAEEAQwBRAEEAWgBRAEIANABBAEcAVQBBAFkAdwBC": 3883,
      "AdwBCADAAQQBIAEkAQQBhAFEAQgB1AEEARwBjAEEAQwBnAEEAawBBAEgATQBBAGMAQQBCAHMAQQBHAGsAQQBkAEEAQgBmAEEASABBAEEAWQBRAEIAeQBBAEgAUQBBAGMAdwBBAG": 3884,
      "awBBAGIAQQBCAHYAQQBHAEUAQQBaAEEAQQBpAEEAQwBBAEEAZgBRAEEASwBBAEYATQBBAFoAUQBC": 3885,
      "AHUAQQBFAHcAQQBaAFEAQgB1AEEARwBjAEEAZABBAEIAbwBBAEMAQQBBAEwAUQBCAGwAQQBI": 3886,
      "MAQQBBAGEAZwBCAHoAQQBHADgAQQBiAGcAQgBmAEEASABJAEEAW": 3887,
      "AEMAQQBHAHcAQQBiAHcAQgBqAEEARwBzAEEAWABRAEEAN": 3888,
      "IAbABBAEgASQBBAEkAQQBBADkAQQBDAEEAQQBXAHcAQgBUAEEARwBNAEEAYwBnAEIAcABBAEgAQQBBAGQAQQBC": 3889,
      "JAGcAQgBnAEEARABBAEEAWQBBAEEAdwBBAE": 3890,
      "QBRAEIAMwBBAEMAQQBBAEwAUQBCAFcAQQBHAEUAQQBiAEEAQgAxAEEARwBVAEEASQBBAEEAawBBAEgATQBBAGMAQQBCAHMAQQBHAGsAQQBkAEEAQgBmAEEASABBAEEAWQBRAEIAeQBBAEgAUQBBAGM": 3891,
      "UABvAHcAZQByAFMAaABlAGwAbAAgAC0ATgBvAFAAcgBvAGYAaQBsAGUAIAAtAE4AbwBuAEkAbgB0AGUAcgBhAGMAdABpAHYAZQAgAC0ARQB4AGUAYwB1AHQAaQBvAG4AUABvAGwAaQBjAHkAIABVAG4AcgBlAHMAdAByAGkAYwB0AGUAZAAgAC0ARQBuAGMAbwBkAGUAZABDAG8AbQBtAGEAbgBkACAASgBnAEIAagBBAEcAZwBBAFkAdwBCAHcAQQBDADQAQQBZAHcAQgB2AEEARwAwAEEASQBBAEEAMgBBAEQAVQBBAE0AQQBBAHcAQQBEAEUAQQBJAEEAQQArAEEAQwBBAEEASgBBAEIAdQBBAEgAVQBBAGIAQQBCAHMAQQBBAG8AQQBKAEEAQgBsAEEASABnAEEAWgBRAEIAagBBAEYAOABBAGQAdwBCAHk": 3892,
      "DAEEAQQBmAEEAQQBnAEEARQA4AEEAZABRAEIAMABBAEMAMABBAFUAdwBCADAAQQBIAEkAQQBhAFEAQgB1AEEARwBjAEEAQwBnAEEAawBBAEgATQBBAGMAQQBCAHMAQQBHAGsAQQBkAEEAQgBmAEEASABBAEEAWQBRAEIAeQBBAEgAUQBBAGMAdwBBAG": 3893,
      "ADAAQQBDADAAQQBWAGcAQgBoAEEASABJAEEAYQBRAEIAaABBAEcASQBBAGIAQQBCAGwAQQBDAEEAQQBMAFEAQgBPAEEARwBFAEEAYgBRAEIAbABBAEMAQQBBAGEAZwBCAHoAQQBHADgAQQBiAGcAQgBmAEEASABJAEEAW": 3894,
      "AEEAQwBnAEIASgBBAEcAWQBBAEkAQQBBAG8AQQBDADAAQQBiAGcAQgB2AEEASABRAEEASQBBAEEAawBBAEgATQBBAGMAQQBCAHMAQQBHAGsAQQBkAEEAQgBmAEEASABBAEEAWQBRAEIAeQBBAEgAUQBBAGMAdwBBAHUAQQBFAHcAQQBaAFEAQgB1AEEARwBjAEEAZABBAEIAbwBBAEMAQQBBAEwAUQBCAGwAQQBI": 3895,
      "gBBAEQAbwBBAFEAdwBCAHkAQQBHAFUAQQBZAFEAQgAwAEEARwBVAEEASwBBAEEAawBBAEgATQBBAGMAQQBCAHMAQQBHAGsAQQBkAEEAQgBmAEEASABBAEEAWQBRAEIAeQBBAEgAUQBBAGMAdwBCAGI": 3896,
      "cAQQBEADAAQQBJAEEAQQBrAEEARwBVAEEAZQBBAEIAbABBAEcATQBBAFgAdwBCADM": 3897,
      "sAQQBCAEEAQQBDAGcAQQBJAGcAQgBnAEEARABBAEEAWQBBAEEAdwBBAE": 3898,
      "MAGcAQgBUAEEASABBAEEAYgBBAEIAcABBAEgAUQBBAE": 3899,
      "NwBBAEMAQQBBAGQAQQBCAG8AQQBIAEkAQQBiAHcAQgAzAEEAQwBBAEEASQBnAEI": 3900,
      "ZABBAEIAcABBAEcAOABBAGIAZwBCAHoAQQBGADAAQQBPAGcAQQA2AEEARgBJAEEAWgBRAEIAdABBAEcAOABBAGQAZwBCAGwAQQBFAFUAQQBiAFEAQgB3AEEASABRAEEAZQBRAEIAR": 3901,
      "cAQQBBAE0AQQBCAGcAQQBEAEEAQQBJAGcAQQBwAEEAQwB3AEEASQBBAEEAeQBBAEMAdwBBAEkAQQBCAGIAQQBG": 3902,
      "rAEEAQwBBAEEAYwBBAEIAaABBAEgAawBBAGIAQQBCAHYAQQBHAEUAQQBaAEEAQQBpAEEAQwBBAEEAZgBRAEEASwBBAEYATQBBAFoAUQBC": 3903,
      "AE0AQQBkAEEAQgB5AEEARwBrAEEAYgBnAEIAbgBBAEYATQBBAGMAQQBCAHMAQQBHAGsAQQBkAEEAQgBQAEEASABBAEEAZABBAEIAcABBAEcAOABBAGIAZwBCAHoAQQBGADAAQQBPAGcAQQA2AEEARgBJAEEAWgBRAEIAdABBAEcAOABBAGQAZwBCAGwAQQBFAFUAQQBiAFEAQgB3AEEASABRAEEAZQBRAEIAR": 3904,
      "AEUAQQBJAEEAQQB5AEEAQwBrAEEASQBBAEIANwBBAEMAQQBBAGQAQQBCAG8AQQBIAEkAQQBiAHcAQgAzAEEAQwBBAEEASQBnAEI": 3905,
      "AGYAQQBIAGMAQQBjAGcAQgBoAEEASABBAEEAYwBBAEIAbABBAEgASQBBAEkAQQBBADkAQQBDAEEAQQBXAHcAQgBUAEEARwBNAEEAYwBnAEIAcABBAEgAQQBBAGQAQQBC": 3906,
      "QAQQBCAHkAQQBDAEEAQQBQAFEAQQBnAEEAQwBRAEEAYQBRAEIAdQBBAEgAQQBBAGQAUQBCADAAQQBDAEEAQQBmAEEAQQBnAEEARQA4AEEAZABRAEIAMABBAEMAMABBAFUAdwBCADAAQQBIAEkAQQBhAFEAQgB1AEEARwBjAEEAQwBnAEEAawBBAEgATQBBAGMAQQBCAHMAQQBHAGsAQQBkAEEAQgBmAEEASABBAEEAWQBRAEIAeQBBAEgAUQBBAGMAdwBBAG": 3907,
      "AQQBIAEkAQQBZAFEAQgB3AEEASABBAEEAWgBRAEIAeQBBAEYAOABBAGMAdwBCADAAQQBIAEkAQQBMAGcAQgBUAEEASABBAEEAYgBBAEIAcABBAEgAUQBBAE": 3908,
      "AQQBHAEUAQQBjAEEAQgB3AEEARwBVAEEAYwBnAEIAZgBBAEgATQBBAGQAQQBCAHkAQQBDAEEAQQBQAFEAQQBnAEEAQwBRAEEAYQBRAEIAdQBBAEgAQQBBAGQAUQBCADAAQQBDAEEAQQBmAEEAQQBnAEEARQA4AEEAZABRAEIAMABBAEMAMABBAFUAdwBCADAAQQBIAEkAQQBhAFEAQgB1AEEARwBjAEEAQwBnAEEAawBBAEgATQBBAGMAQQBCAHMAQQBHAGsAQQBkAEEAQgBmAEEASABBAEEAWQBRAEIAeQBBAEgAUQBBAGMAdwBBAG": 3909,
      "gBBAEcANABBAGQAQQBCAHkAQQBHAGsAQQBaAFEAQgB6AEEAQwBrAEEAQwBnAEIASgBBAEcAWQBBAEkAQQBBAG8AQQBDADAAQQBiAGcAQgB2AEEASABRAEEASQBBAEEAawBBAEgATQBBAGMAQQBCAHMAQQBHAGsAQQBkAEEAQgBmAEEASABBAEEAWQBRAEIAeQBBAEgAUQBBAGMAdwBBAHUAQQBFAHcAQQBaAFEAQgB1AEEARwBjAEEAZABBAEIAbwBBAEMAQQBBAEwAUQBCAGwAQQBI": 3910,
      "AcABBAEcANABBAGQAZwBCAGgAQQBHAHcAQQBhAFEAQgBrAEEAQwBBAEEAYwBBAEIAaABBAEgAawBBAGIAQQBCAHYAQQBHAEUAQQBaAEEAQQBpAEEAQwBBAEEAZgBRAEEASwBBAEYATQBBAFoAUQBC": 3911,
      "AQQBEAEEAQQBYAFEAQQBwAEEAQQBvAEEASgBnAEEAawBBAEcAVQBBAGUAQQBCAGwAQQBHAE0AQQBYAHcAQgAzAEEASABJAEEAWQBRAEIAdwBBAEgAQQBBAFoAUQBCAHkAQQBBAD0APQA": 3912,
      "AdwBCAGIAQQBEAEUAQQBYAFEAQQBLAEEAQwBRAEEAWgBRAEIANABBAEcAVQBBAFkAdwBCAGYAQQBIAGMAQQBjAGcAQgBoAEEASABBAEEAYwBBAEIAbABBAEgASQBBAEkAQQBBADkAQQBDAEEAQQBXAHcAQgBUAEEARwBNAEEAYwBnAEIAcABBAEgAQQBBAGQAQQBC": 3913,
      "AEMAQQBHAHcAQQBiAHcAQgBqAEEARwBzAEEAWABRAEEANgBBAEQAbwBBAFEAdwBCAHkAQQBHAFUAQQBZAFEAQgAwAEEARwBVAEEASwBBAEEAawBBAEgATQBBAGMAQQBCAHMAQQBHAGsAQQBkAEEAQgBmAEEASABBAEEAWQBRAEIAeQBBAEgAUQBBAGMAdwBCAGI": 3914,
      "QBRAEIAMwBBAEMAQQBBAEwAUQBCAFcAQQBHAEUAQQBiAEEAQgAxAEEARwBVAEEASQBBAEEAawBBAEgATQBBAGMAQQBCAHMAQQBHAGsAQQBkAEEAQgBmAEEASABBAEEAWQBRAEIAeQBBAEgAUQBBAGMAdwBCAGIAQQBEAEUAQQBYAFEAQQBLAEEAQwBRAEEAWgBRAEIANABBAEcAVQBBAFkAdwBCAGYAQQBIAGMAQQBjAGcAQgBoAEEASABBAEEAYwBBAEIAbABBAEgASQBBAEkAQQBBADkAQQBDAEEAQQBXAHcAQgBUAEEARwBNAEEAYwBnAEIAcABBAEgAQQBBAGQAQQBC": 3915,
      "UABvAHcAZQByAFMAaABlAGwAbAAgAC0ATgBvAFAAcgBvAGYAaQBsAGUAIAAtAE4AbwBuAEkAbgB0AGUAcgBhAGMAdABpAHYAZQAgAC0ARQB4AGUAYwB1AHQAaQBvAG4AUABvAGwAaQBjAHkAIABVAG4AcgBlAHMAdAByAGkAYwB0AGUAZAAgAC0ARQBuAGMAbwBkAGUAZABDAG8AbQBtAGEAbgBkACAASgBnAEIAagBBAEcAZwBBAFkAdwBCAHcAQQBDADQAQQBZAHcAQgB2AEEARwAwAEEASQBBAEEAMgBBAEQAVQBBAE0AQQBBAHcAQQBEAEUAQQBJAEEAQQArAEEAQwBBAEEASgBBAEIAdQBBAEgAVQBBAGIAQQBCAHMAQQBBAG8AQQBKAEEAQgBsAEEASABnAEEAWgBRAEIAagBBAEYAOABBAGQAdwBCAHkAQQBHAEUAQQBjAEEAQgB3AEEARwBVAEEAYwBnAEIAZgBBAEgATQBBAGQAQQBCAHkAQQBDAEEAQQBQAFEAQQBnAEEAQwBRAEEAYQBRAEIAdQBBAEgAQQBBAGQAUQBCADAAQQBDAEEAQQBmAEEAQQBnAEEARQA4AEEAZABRAEIAMABBAEMAMABBAFUAdwBCADAAQQBIAEkAQQBhAFEAQgB1AEEARwBjAEEAQwBnAEEAawBBAEgATQBBAGMAQQBCAHMAQQBHAGsAQQBkAEEAQgBmAEEASABBAEEAWQBRAEIAeQBBAEgAUQBBAGMAdwBBAG": 3916,
      "ADAAQQBDADAAQQBWAGcAQgBoAEEASABJAEEAYQBRAEIAaABBAEcASQBBAGIAQQBCAGwAQQBDAEEAQQBMAFEAQgBPAEEARwBFAEEAYgBRAEIAbABBAEMAQQBBAGEAZwBCAHoAQQBHADgAQQBiAGcAQgBmAEEASABJAEEAWQBRAEIAMwBBAEMAQQBBAEwAUQBCAFcAQQBHAEUAQQBiAEEAQgAxAEEARwBVAEEASQBBAEEAawBBAEgATQBBAGMAQQBCAHMAQQBHAGsAQQBkAEEAQgBmAEEASABBAEEAWQBRAEIAeQBBAEgAUQBBAGMAdwBCAGIAQQBEAEUAQQBYAFEAQQBLAEEAQwBRAEEAWgBRAEIANABBAEcAVQBBAFkAdwBCAGYAQQBIAGMAQQBjAGcAQgBoAEEASABBAEEAYwBBAEIAbABBAEgASQBBAEkAQQBBADkAQQBDAEEAQQBXAHcAQgBUAEEARwBNAEEAYwBnAEIAcABBAEgAQQBBAGQAQQBC": 3917,
      "cAQQBEADAAQQBJAEEAQQBrAEEARwBVAEEAZQBBAEIAbABBAEcATQBBAFgAdwBCADMAQQBIAEkAQQBZAFEAQgB3AEEASABBAEEAWgBRAEIAeQBBAEYAOABBAGMAdwBCADAAQQBIAEkAQQBMAGcAQgBUAEEASABBAEEAYgBBAEIAcABBAEgAUQBBAE": 3918,
      "sAQQBCAEEAQQBDAGcAQQBJAGcAQgBnAEEARABBAEEAWQBBAEEAdwBBAEcAQQBBAE0AQQBCAGcAQQBEAEEAQQBJAGcAQQBwAEEAQwB3AEEASQBBAEEAeQBBAEMAdwBBAEkAQQBCAGIAQQBG": 3919,
      "AE0AQQBkAEEAQgB5AEEARwBrAEEAYgBnAEIAbgBBAEYATQBBAGMAQQBCAHMAQQBHAGsAQQBkAEEAQgBQAEEASABBAEEAZABBAEIAcABBAEcAOABBAGIAZwBCAHoAQQBGADAAQQBPAGcAQQA2AEEARgBJAEEAWgBRAEIAdABBAEcAOABBAGQAZwBCAGwAQQBFAFUAQQBiAFEAQgB3AEEASABRAEEAZQBRAEIARgBBAEcANABBAGQAQQBCAHkAQQBHAGsAQQBaAFEAQgB6AEEAQwBrAEEAQwBnAEIASgBBAEcAWQBBAEkAQQBBAG8AQQBDADAAQQBiAGcAQgB2AEEASABRAEEASQBBAEEAawBBAEgATQBBAGMAQQBCAHMAQQBHAGsAQQBkAEEAQgBmAEEASABBAEEAWQBRAEIAeQBBAEgAUQBBAGMAdwBBAHUAQQBFAHcAQQBaAFEAQgB1AEEARwBjAEEAZABBAEIAbwBBAEMAQQBBAEwAUQBCAGwAQQBI": 3920,
      "AEUAQQBJAEEAQQB5AEEAQwBrAEEASQBBAEIANwBBAEMAQQBBAGQAQQBCAG8AQQBIAEkAQQBiAHcAQgAzAEEAQwBBAEEASQBnAEIAcABBAEcANABBAGQAZwBCAGgAQQBHAHcAQQBhAFEAQgBrAEEAQwBBAEEAYwBBAEIAaABBAEgAawBBAGIAQQBCAHYAQQBHAEUAQQBaAEEAQQBpAEEAQwBBAEEAZgBRAEEASwBBAEYATQBBAFoAUQBC": 3921,
      "AEMAQQBHAHcAQQBiAHcAQgBqAEEARwBzAEEAWABRAEEANgBBAEQAbwBBAFEAdwBCAHkAQQBHAFUAQQBZAFEAQgAwAEEARwBVAEEASwBBAEEAawBBAEgATQBBAGMAQQBCAHMAQQBHAGsAQQBkAEEAQgBmAEEASABBAEEAWQBRAEIAeQBBAEgAUQBBAGMAdwBCAGIAQQBEAEEAQQBYAFEAQQBwAEEAQQBvAEEASgBnAEEAawBBAEcAVQBBAGUAQQBCAGwAQQBHAE0AQQBYAHcAQgAzAEEASABJAEEAWQBRAEIAdwBBAEgAQQBBAFoAUQBCAHkAQQBBAD0APQA": 3922,
      "UABvAHcAZQByAFMAaABlAGwAbAAgAC0ATgBvAFAAcgBvAGYAaQBsAGUAIAAtAE4AbwBuAEkAbgB0AGUAcgBhAGMAdABpAHYAZQAgAC0ARQB4AGUAYwB1AHQAaQBvAG4AUABvAGwAaQBjAHkAIABVAG4AcgBlAHMAdAByAGkAYwB0AGUAZAAgAC0ARQBuAGMAbwBkAGUAZABDAG8AbQBtAGEAbgBkACAASgBnAEIAagBBAEcAZwBBAFkAdwBCAHcAQQBDADQAQQBZAHcAQgB2AEEARwAwAEEASQBBAEEAMgBBAEQAVQBBAE0AQQBBAHcAQQBEAEUAQQBJAEEAQQArAEEAQwBBAEEASgBBAEIAdQBBAEgAVQBBAGIAQQBCAHMAQQBBAG8AQQBKAEEAQgBsAEEASABnAEEAWgBRAEIAagBBAEYAOABBAGQAdwBCAHkAQQBHAEUAQQBjAEEAQgB3AEEARwBVAEEAYwBnAEIAZgBBAEgATQBBAGQAQQBCAHkAQQBDAEEAQQBQAFEAQQBnAEEAQwBRAEEAYQBRAEIAdQBBAEgAQQBBAGQAUQBCADAAQQBDAEEAQQBmAEEAQQBnAEEARQA4AEEAZABRAEIAMABBAEMAMABBAFUAdwBCADAAQQBIAEkAQQBhAFEAQgB1AEEARwBjAEEAQwBnAEEAawBBAEgATQBBAGMAQQBCAHMAQQBHAGsAQQBkAEEAQgBmAEEASABBAEEAWQBRAEIAeQBBAEgAUQBBAGMAdwBBAGcAQQBEADAAQQBJAEEAQQBrAEEARwBVAEEAZQBBAEIAbABBAEcATQBBAFgAdwBCADMAQQBIAEkAQQBZAFEAQgB3AEEASABBAEEAWgBRAEIAeQBBAEYAOABBAGMAdwBCADAAQQBIAEkAQQBMAGcAQgBUAEEASABBAEEAYgBBAEIAcABBAEgAUQBBAE": 3923,
      "ADAAQQBDADAAQQBWAGcAQgBoAEEASABJAEEAYQBRAEIAaABBAEcASQBBAGIAQQBCAGwAQQBDAEEAQQBMAFEAQgBPAEEARwBFAEEAYgBRAEIAbABBAEMAQQBBAGEAZwBCAHoAQQBHADgAQQBiAGcAQgBmAEEASABJAEEAWQBRAEIAMwBBAEMAQQBBAEwAUQBCAFcAQQBHAEUAQQBiAEEAQgAxAEEARwBVAEEASQBBAEEAawBBAEgATQBBAGMAQQBCAHMAQQBHAGsAQQBkAEEAQgBmAEEASABBAEEAWQBRAEIAeQBBAEgAUQBBAGMAdwBCAGIAQQBEAEUAQQBYAFEAQQBLAEEAQwBRAEEAWgBRAEIANABBAEcAVQBBAFkAdwBCAGYAQQBIAGMAQQBjAGcAQgBoAEEASABBAEEAYwBBAEIAbABBAEgASQBBAEkAQQBBADkAQQBDAEEAQQBXAHcAQgBUAEEARwBNAEEAYwBnAEIAcABBAEgAQQBBAGQAQQBCAEMAQQBHAHcAQQBiAHcAQgBqAEEARwBzAEEAWABRAEEANgBBAEQAbwBBAFEAdwBCAHkAQQBHAFUAQQBZAFEAQgAwAEEARwBVAEEASwBBAEEAawBBAEgATQBBAGMAQQBCAHMAQQBHAGsAQQBkAEEAQgBmAEEASABBAEEAWQBRAEIAeQBBAEgAUQBBAGMAdwBCAGIAQQBEAEEAQQBYAFEAQQBwAEEAQQBvAEEASgBnAEEAawBBAEcAVQBBAGUAQQBCAGwAQQBHAE0AQQBYAHcAQgAzAEEASABJAEEAWQBRAEIAdwBBAEgAQQBBAFoAUQBCAHkAQQBBAD0APQA": 3924,
      "sAQQBCAEEAQQBDAGcAQQBJAGcAQgBnAEEARABBAEEAWQBBAEEAdwBBAEcAQQBBAE0AQQBCAGcAQQBEAEEAQQBJAGcAQQBwAEEAQwB3AEEASQBBAEEAeQBBAEMAdwBBAEkAQQBCAGIAQQBGAE0AQQBkAEEAQgB5AEEARwBrAEEAYgBnAEIAbgBBAEYATQBBAGMAQQBCAHMAQQBHAGsAQQBkAEEAQgBQAEEASABBAEEAZABBAEIAcABBAEcAOABBAGIAZwBCAHoAQQBGADAAQQBPAGcAQQA2AEEARgBJAEEAWgBRAEIAdABBAEcAOABBAGQAZwBCAGwAQQBFAFUAQQBiAFEAQgB3AEEASABRAEEAZQBRAEIARgBBAEcANABBAGQAQQBCAHkAQQBHAGsAQQBaAFEAQgB6AEEAQwBrAEEAQwBnAEIASgBBAEcAWQBBAEkAQQBBAG8AQQBDADAAQQBiAGcAQgB2AEEASABRAEEASQBBAEEAawBBAEgATQBBAGMAQQBCAHMAQQBHAGsAQQBkAEEAQgBmAEEASABBAEEAWQBRAEIAeQBBAEgAUQBBAGMAdwBBAHUAQQBFAHcAQQBaAFEAQgB1AEEARwBjAEEAZABBAEIAbwBBAEMAQQBBAEwAUQBCAGwAQQBI": 3925,
      "AEUAQQBJAEEAQQB5AEEAQwBrAEEASQBBAEIANwBBAEMAQQBBAGQAQQBCAG8AQQBIAEkAQQBiAHcAQgAzAEEAQwBBAEEASQBnAEIAcABBAEcANABBAGQAZwBCAGgAQQBHAHcAQQBhAFEAQgBrAEEAQwBBAEEAYwBBAEIAaABBAEgAawBBAGIAQQBCAHYAQQBHAEUAQQBaAEEAQQBpAEEAQwBBAEEAZgBRAEEASwBBAEYATQBBAFoAUQBCADAAQQBDADAAQQBWAGcAQgBoAEEASABJAEEAYQBRAEIAaABBAEcASQBBAGIAQQBCAGwAQQBDAEEAQQBMAFEAQgBPAEEARwBFAEEAYgBRAEIAbABBAEMAQQBBAGEAZwBCAHoAQQBHADgAQQBiAGcAQgBmAEEASABJAEEAWQBRAEIAMwBBAEMAQQBBAEwAUQBCAFcAQQBHAEUAQQBiAEEAQgAxAEEARwBVAEEASQBBAEEAawBBAEgATQBBAGMAQQBCAHMAQQBHAGsAQQBkAEEAQgBmAEEASABBAEEAWQBRAEIAeQBBAEgAUQBBAGMAdwBCAGIAQQBEAEUAQQBYAFEAQQBLAEEAQwBRAEEAWgBRAEIANABBAEcAVQBBAFkAdwBCAGYAQQBIAGMAQQBjAGcAQgBoAEEASABBAEEAYwBBAEIAbABBAEgASQBBAEkAQQBBADkAQQBDAEEAQQBXAHcAQgBUAEEARwBNAEEAYwBnAEIAcABBAEgAQQBBAGQAQQBCAEMAQQBHAHcAQQBiAHcAQgBqAEEARwBzAEEAWABRAEEANgBBAEQAbwBBAFEAdwBCAHkAQQBHAFUAQQBZAFEAQgAwAEEARwBVAEEASwBBAEEAawBBAEgATQBBAGMAQQBCAHMAQQBHAGsAQQBkAEEAQgBmAEEASABBAEEAWQBRAEIAeQBBAEgAUQBBAGMAdwBCAGIAQQBEAEEAQQBYAFEAQQBwAEEAQQBvAEEASgBnAEEAawBBAEcAVQBBAGUAQQBCAGwAQQBHAE0AQQBYAHcAQgAzAEEASABJAEEAWQBRAEIAdwBBAEgAQQBBAFoAUQBCAHkAQQBBAD0APQA": 3926,
      "UABvAHcAZQByAFMAaABlAGwAbAAgAC0ATgBvAFAAcgBvAGYAaQBsAGUAIAAtAE4AbwBuAEkAbgB0AGUAcgBhAGMAdABpAHYAZQAgAC0ARQB4AGUAYwB1AHQAaQBvAG4AUABvAGwAaQBjAHkAIABVAG4AcgBlAHMAdAByAGkAYwB0AGUAZAAgAC0ARQBuAGMAbwBkAGUAZABDAG8AbQBtAGEAbgBkACAASgBnAEIAagBBAEcAZwBBAFkAdwBCAHcAQQBDADQAQQBZAHcAQgB2AEEARwAwAEEASQBBAEEAMgBBAEQAVQBBAE0AQQBBAHcAQQBEAEUAQQBJAEEAQQArAEEAQwBBAEEASgBBAEIAdQBBAEgAVQBBAGIAQQBCAHMAQQBBAG8AQQBKAEEAQgBsAEEASABnAEEAWgBRAEIAagBBAEYAOABBAGQAdwBCAHkAQQBHAEUAQQBjAEEAQgB3AEEARwBVAEEAYwBnAEIAZgBBAEgATQBBAGQAQQBCAHkAQQBDAEEAQQBQAFEAQQBnAEEAQwBRAEEAYQBRAEIAdQBBAEgAQQBBAGQAUQBCADAAQQBDAEEAQQBmAEEAQQBnAEEARQA4AEEAZABRAEIAMABBAEMAMABBAFUAdwBCADAAQQBIAEkAQQBhAFEAQgB1AEEARwBjAEEAQwBnAEEAawBBAEgATQBBAGMAQQBCAHMAQQBHAGsAQQBkAEEAQgBmAEEASABBAEEAWQBRAEIAeQBBAEgAUQBBAGMAdwBBAGcAQQBEADAAQQBJAEEAQQBrAEEARwBVAEEAZQBBAEIAbABBAEcATQBBAFgAdwBCADMAQQBIAEkAQQBZAFEAQgB3AEEASABBAEEAWgBRAEIAeQBBAEYAOABBAGMAdwBCADAAQQBIAEkAQQBMAGcAQgBUAEEASABBAEEAYgBBAEIAcABBAEgAUQBBAEsAQQBCAEEAQQBDAGcAQQBJAGcAQgBnAEEARABBAEEAWQBBAEEAdwBBAEcAQQBBAE0AQQBCAGcAQQBEAEEAQQBJAGcAQQBwAEEAQwB3AEEASQBBAEEAeQBBAEMAdwBBAEkAQQBCAGIAQQBGAE0AQQBkAEEAQgB5AEEARwBrAEEAYgBnAEIAbgBBAEYATQBBAGMAQQBCAHMAQQBHAGsAQQBkAEEAQgBQAEEASABBAEEAZABBAEIAcABBAEcAOABBAGIAZwBCAHoAQQBGADAAQQBPAGcAQQA2AEEARgBJAEEAWgBRAEIAdABBAEcAOABBAGQAZwBCAGwAQQBFAFUAQQBiAFEAQgB3AEEASABRAEEAZQBRAEIARgBBAEcANABBAGQAQQBCAHkAQQBHAGsAQQBaAFEAQgB6AEEAQwBrAEEAQwBnAEIASgBBAEcAWQBBAEkAQQBBAG8AQQBDADAAQQBiAGcAQgB2AEEASABRAEEASQBBAEEAawBBAEgATQBBAGMAQQBCAHMAQQBHAGsAQQBkAEEAQgBmAEEASABBAEEAWQBRAEIAeQBBAEgAUQBBAGMAdwBBAHUAQQBFAHcAQQBaAFEAQgB1AEEARwBjAEEAZABBAEIAbwBBAEMAQQBBAEwAUQBCAGwAQQBI": 3927,
      "UABvAHcAZQByAFMAaABlAGwAbAAgAC0ATgBvAFAAcgBvAGYAaQBsAGUAIAAtAE4AbwBuAEkAbgB0AGUAcgBhAGMAdABpAHYAZQAgAC0ARQB4AGUAYwB1AHQAaQBvAG4AUABvAGwAaQBjAHkAIABVAG4AcgBlAHMAdAByAGkAYwB0AGUAZAAgAC0ARQBuAGMAbwBkAGUAZABDAG8AbQBtAGEAbgBkACAASgBnAEIAagBBAEcAZwBBAFkAdwBCAHcAQQBDADQAQQBZAHcAQgB2AEEARwAwAEEASQBBAEEAMgBBAEQAVQBBAE0AQQBBAHcAQQBEAEUAQQBJAEEAQQArAEEAQwBBAEEASgBBAEIAdQBBAEgAVQBBAGIAQQBCAHMAQQBBAG8AQQBKAEEAQgBsAEEASABnAEEAWgBRAEIAagBBAEYAOABBAGQAdwBCAHkAQQBHAEUAQQBjAEEAQgB3AEEARwBVAEEAYwBnAEIAZgBBAEgATQBBAGQAQQBCAHkAQQBDAEEAQQBQAFEAQQBnAEEAQwBRAEEAYQBRAEIAdQBBAEgAQQBBAGQAUQBCADAAQQBDAEEAQQBmAEEAQQBnAEEARQA4AEEAZABRAEIAMABBAEMAMABBAFUAdwBCADAAQQBIAEkAQQBhAFEAQgB1AEEARwBjAEEAQwBnAEEAawBBAEgATQBBAGMAQQBCAHMAQQBHAGsAQQBkAEEAQgBmAEEASABBAEEAWQBRAEIAeQBBAEgAUQBBAGMAdwBBAGcAQQBEADAAQQBJAEEAQQBrAEEARwBVAEEAZQBBAEIAbABBAEcATQBBAFgAdwBCADMAQQBIAEkAQQBZAFEAQgB3AEEASABBAEEAWgBRAEIAeQBBAEYAOABBAGMAdwBCADAAQQBIAEkAQQBMAGcAQgBUAEEASABBAEEAYgBBAEIAcABBAEgAUQBBAEsAQQBCAEEAQQBDAGcAQQBJAGcAQgBnAEEARABBAEEAWQBBAEEAdwBBAEcAQQBBAE0AQQBCAGcAQQBEAEEAQQBJAGcAQQBwAEEAQwB3AEEASQBBAEEAeQBBAEMAdwBBAEkAQQBCAGIAQQBGAE0AQQBkAEEAQgB5AEEARwBrAEEAYgBnAEIAbgBBAEYATQBBAGMAQQBCAHMAQQBHAGsAQQBkAEEAQgBQAEEASABBAEEAZABBAEIAcABBAEcAOABBAGIAZwBCAHoAQQBGADAAQQBPAGcAQQA2AEEARgBJAEEAWgBRAEIAdABBAEcAOABBAGQAZwBCAGwAQQBFAFUAQQBiAFEAQgB3AEEASABRAEEAZQBRAEIARgBBAEcANABBAGQAQQBCAHkAQQBHAGsAQQBaAFEAQgB6AEEAQwBrAEEAQwBnAEIASgBBAEcAWQBBAEkAQQBBAG8AQQBDADAAQQBiAGcAQgB2AEEASABRAEEASQBBAEEAawBBAEgATQBBAGMAQQBCAHMAQQBHAGsAQQBkAEEAQgBmAEEASABBAEEAWQBRAEIAeQBBAEgAUQBBAGMAdwBBAHUAQQBFAHcAQQBaAFEAQgB1AEEARwBjAEEAZABBAEIAbwBBAEMAQQBBAEwAUQBCAGwAQQBIAEUAQQBJAEEAQQB5AEEAQwBrAEEASQBBAEIANwBBAEMAQQBBAGQAQQBCAG8AQQBIAEkAQQBiAHcAQgAzAEEAQwBBAEEASQBnAEIAcABBAEcANABBAGQAZwBCAGgAQQBHAHcAQQBhAFEAQgBrAEEAQwBBAEEAYwBBAEIAaABBAEgAawBBAGIAQQBCAHYAQQBHAEUAQQBaAEEAQQBpAEEAQwBBAEEAZgBRAEEASwBBAEYATQBBAFoAUQBCADAAQQBDADAAQQBWAGcAQgBoAEEASABJAEEAYQBRAEIAaABBAEcASQBBAGIAQQBCAGwAQQBDAEEAQQBMAFEAQgBPAEEARwBFAEEAYgBRAEIAbABBAEMAQQBBAGEAZwBCAHoAQQBHADgAQQBiAGcAQgBmAEEASABJAEEAWQBRAEIAMwBBAEMAQQBBAEwAUQBCAFcAQQBHAEUAQQBiAEEAQgAxAEEARwBVAEEASQBBAEEAawBBAEgATQBBAGMAQQBCAHMAQQBHAGsAQQBkAEEAQgBmAEEASABBAEEAWQBRAEIAeQBBAEgAUQBBAGMAdwBCAGIAQQBEAEUAQQBYAFEAQQBLAEEAQwBRAEEAWgBRAEIANABBAEcAVQBBAFkAdwBCAGYAQQBIAGMAQQBjAGcAQgBoAEEASABBAEEAYwBBAEIAbABBAEgASQBBAEkAQQBBADkAQQBDAEEAQQBXAHcAQgBUAEEARwBNAEEAYwBnAEIAcABBAEgAQQBBAGQAQQBCAEMAQQBHAHcAQQBiAHcAQgBqAEEARwBzAEEAWABRAEEANgBBAEQAbwBBAFEAdwBCAHkAQQBHAFUAQQBZAFEAQgAwAEEARwBVAEEASwBBAEEAawBBAEgATQBBAGMAQQBCAHMAQQBHAGsAQQBkAEEAQgBmAEEASABBAEEAWQBRAEIAeQBBAEgAUQBBAGMAdwBCAGIAQQBEAEEAQQBYAFEAQQBwAEEAQQBvAEEASgBnAEEAawBBAEcAVQBBAGUAQQBCAGwAQQBHAE0AQQBYAHcAQgAzAEEASABJAEEAWQBRAEIAdwBBAEgAQQBBAFoAUQBCAHkAQQBBAD0APQA": 3928,
      "AEEARQB": 3929,
      "Silently": 3930,
      "2004": 3931,
      ",,,,,,,,,,,,,,,,,,,,,,,,,,,,,,,,,,,,,,,,,,,,,,,,,,,,,,,,,,,,,,,,,,,,,,,,,,,,,,,,,,,,,,,,,,,,,,,,,,,,,,,,,,,,,,,,,,,,,,,,,,,,,,,,,,,,,,,,,,,,,,,,,,,,,,,,,,,,,,,,,,,,,,,,,,,,,,,,,,,,,,,,,,,,,,,,,,,,,,,,,,,,,,,,,,,,,,,,,,,,,,,,,,,,,,,,,,,,,,,,,,,,,,,,,,,,,,,,,,,,,,,,,,,,,,,,,,,,,,,,,,,,,,,,,,,,,,,,,,,,,,,,,,,,,,,,,,,,,,,,,,,,,,,,,,,,,,,,,,,,,,,,,,,,,,,,": 3932,
      "\"\"\\": 3933,
      "b42bc": 3934,
      "6b6e1": 3935,
      "a3c6b6e1": 3936,
      "0542b42bc": 3937,
      "0542b42bca3c6b6e1": 3938,
      "AEEAT": 3939,
      "SilentlyContinue": 3940,
      "476": 3941,
      "})": 3942,
      "7b24": 3943,
      "985d": 3944,
      "rs": 3945,
      "adcfa": 3946,
      "686": 3947,
      "73c8": 3948,
      "de7b24": 3949,
      "5bdadcfa": 3950,
      "de7b24ea": 3951,
      "5bdadcfa9017": 3952,
      "Spec": 3953,
      "AdAA": 3954,
      "_ms": 3955,
      "F00": 3956,
      "celer": 3957,
      "IPsec": 3958,
      "QAu": 3959,
      "ther": 3960,
      "ain_31bf3856ad364e35_10": 3961,
      "F0": 3962,
      "212": 3963,
      "mACAA": 3964,
      "ThreadId": 3965,
      "337": 3966,
      "0xC": 3967,
      "287": 3968,
      "eutr": 3969,
      "eutral": 3970,
      "Property": 3971,
      "AZQA": 3972,
      "TargetImage": 3973,
      "TargetProcessId": 3974,
      "SourceImage": 3975,
      "SourceProcessId": 3976,
      "768": 3977,
      "BM": 3978,
      "TargetProcessGUID": 3979,
      "GrantedAccess": 3980,
      "CallTrace": 3981,
      "SourceProcessGUID": 3982,
      "SourceThreadId": 3983,
      "AGEA": 3984,
      "aWdp": 3985,
      "4934": 3986,
      "13d3": 3987,
      "AcwA": 3988,
      "'))": 3989,
      "Y29": 3990,
      "Nz": 3991,
      "Termination": 3992,
      "Lim": 3993,
      "aaad": 3994,
      "calls": 3995,
      "QBBAGMAZwBC": 3996,
      "46b12": 3997,
      "06383": 3998,
      "0de06383": 3999,
      "4dd13d3": 4000,
      "4dd13d346b12": 4001,
      "LR": 4002,
      "need": 4003,
      "ension": 4004,
      "TI": 4005,
      "Creating": 4006,
      "running": 4007,
      "448": 4008,
      "_type": 4009,
      "SH": 4010,
      "),,": 4011,
      "Scriptblock": 4012,
      "allow": 4013,
      "173": 4014,
      "common": 4015,
      ".$": 4016,
      "cw": 4017,
      "0x107c": 4018,
      "Util": 4019,
      "bm": 4020,
      "AHIAZQB": 4021,
      "21T": 4022,
      "iag": 4023,
      "034": 4024,
      "9fc24": 4025,
      "Y29t": 4026,
      "fc7": 4027,
      "xM": 4028,
      "],": 4029,
      "4cf7": 4030,
      "edd": 4031,
      "actual": 4032,
      "ok": 4033,
      "6276": 4034,
      "DZXJ0": 4035,
      "743": 4036,
      "Keyword": 4037,
      "One": 4038,
      "_neutral": 4039,
      "prop": 4040,
      "failure": 4041,
      "\"\">": 4042,
      "C8": 4043,
      ",,,,,,,,,,,,,,,,,,,,,,,,,,,,,,,,,,,,,,,,,,,,,,,,,,,,,,,,,,,,,,,,,,,,,,,,,,,,,,,,,,,,,,,,,,,,,,,,,,,,,,,,,,,,,,,,,,,,,,,,,,,,,,,,,,,,,,,,,,,,,,,,,,,,,,,,,,,,,,,,,,,,,,,,,,,,,,,,,,,,,,,,,,,,,,,,,,,,,,,,,,,,,,,,,,,,,,,,,,,,,,,,": 4044,
      "Previ": 4045,
      "}\"\"": 4046,
      "c6": 4047,
      "Hi": 4048,
      "atches": 4049,
      "SYN": 4050,
      "507": 4051,
      "arch": 4052,
      "5908": 4053,
      "9263": 4054,
      "IAQQB": 4055,
      "den": 4056,
      "ert": 4057,
      "f08": 4058,
      "6253": 4059,
      "82a": 4060,
      "resul": 4061,
      "Opcode": 4062,
      "Keywords": 4063,
      "resulto": 4064,
      "dif": 4065,
      "License": 4066,
      "str": 4067,
      "min_": 4068,
      "orization": 4069,
      "Date": 4070,
      ",\"\"\"": 4071,
      "module_wrapper": 4072,
      "Restart": 4073,
      "Previous": 4074,
      "269": 4075,
      "4672": 4076,
      "Authorization": 4077,
      "AMAZ": 4078,
      "EC2AMAZ": 4079,
      "UI": 4080,
      "75e": 4081,
      "DF": 4082,
      "1d1b": 4083,
      "537": 4084,
      "38db": 4085,
      "0x4": 4086,
      "WOR": 4087,
      "$,,": 4088,
      "Special": 4089,
      "PSObject": 4090,
      "C_": 4091,
      "'></": 4092,
      "Low": 4093,
      "QY": 4094,
      "ayload": 4095,
      "?\\": 4096,
      "0e59": 4097,
      "8d3c": 4098,
      "].": 4099,
      "804d": 4100,
      "cae6": 4101,
      "pi": 4102,
      "57802": 4103,
      "info": 4104,
      "0e59a0": 4105,
      "0bc4": 4106,
      "TargetObject": 4107,
      "EventType": 4108,
      "070e59a0": 4109,
      "82a57802": 4110,
      "38db070e59a0": 4111,
      "6c7b": 4112,
      "},['": 4113,
      "ww": 4114,
      "InvDB": 4115,
      "wE": 4116,
      "computer": 4117,
      "179": 4118,
      "SecurityPrivilege": 4119,
      "SeSecurityPrivilege": 4120,
      "AZwBBAG": 4121,
      "regist": 4122,
      ",,,,,,,,,,,,,,,,,,,,,,,,,,,,,,,,,,,,,,,,,,,,,,,,,,,,,,,,,,,,,,,,,,,,,,,,,,,,,,,,,,,,,,,,,,,,,,,,,,,,,,,,,,,,,,,,,,,,,,,,,,,,,,,,,,,,,,,,,,,,,,,,,,,,,,,,,,,,,,,,,,,,,,,,,,,,,,,,,,,,,,,,,,,,,,,,,,,,,,,,,,,,,,,,,,,,,,,,,,,,,,,,,,,,,,,,,,,,,,,,,,,,,,,,,,,,,,,,,,,,,,,,,,,,,,,,,,,,,,,,,,,,,,,,,,,,,,,,,,,,,,,,,,,,,,,,,,,,,,,,,,,,,,,,,,,,,,,,,,,,,,,,,,,,,,,,,,,,,,,,,,,,,,,,": 4123,
      "public": 4124,
      "KwY": 4125,
      "122": 4126,
      "SeImpersonatePrivilege": 4127,
      "Limit": 4128,
      "exec_wrapper": 4129,
      "Restore": 4130,
      "30490": 4131,
      "1600": 4132,
      "oZ": 4133,
      "iteral": 4134,
      "77803": 4135,
      "54a18": 4136,
      "Literal": 4137,
      "ties": 4138,
      "0463": 4139,
      ",,,,,,,,,,,,,,,,,,,,,,,,,,,,,,,,,,,,,,,,,,,,,,,,,,,,,,,,,,,,,,,,,,,,,,,,,,,,,,,,,,,,,,,,,,,,,,,,,,,,,,,,,,,,,,,,,,,,,,,,,,,,,,,,,,,,,,,,,,,,,,,,,,,,,,,,,,,,,,,,,,,,,,,,,,,,,,,,,,,,,,,,,,,,,,,,,,,,,,,,,,,,,,,,,,,,,,,,,,,,,,,,,,,,,,,,,,,,,,,,": 4140,
      "reak": 4141,
      "perties": 4142,
      "BQ": 4143,
      "LiteralPath": 4144,
      "Text": 4145,
      "ing_": 4146,
      "0x15": 4147,
      "PSCmdlet": 4148,
      "AcwAg": 4149,
      "Schedule": 4150,
      "00000000d": 4151,
      "core": 4152,
      "18c4": 4153,
      "SeBackup": 4154,
      "SeBackupPrivilege": 4155,
      "4a7c": 4156,
      "AS": 4157,
      "d743": 4158,
      "0cf2": 4159,
      "5n": 4160,
      "fd55": 4161,
      "1cfb": 4162,
      "SeRestore": 4163,
      "SeRestorePrivilege": 4164,
      "5a4a7c": 4165,
      "058fd55": 4166,
      "92635a4a7c": 4167,
      "f081cfb": 4168,
      "0cf292635a4a7c": 4169,
      "058fd55f081cfb": 4170,
      "0cf292635a4a7c679": 4171,
      "058fd55f081cfb165": 4172,
      "MD5": 4173,
      "SHA256": 4174,
      "d7a7": 4175,
      "c823": 4176,
      "GlnaW": 4177,
      "Share": 4178,
      "Builder": 4179,
      "ature": 4180,
      "01fa6": 4181,
      "336": 4182,
      "0463d7a7": 4183,
      "01fa60463d7a7": 4184,
      "01fa60463d7a7c823": 4185,
      "UTF": 4186,
      "0000000000": 4187,
      "57c": 4188,
      "ired": 4189,
      "Delegate": 4190,
      "ACgB": 4191,
      "FileSystem": 4192,
      "\"\"{": 4193,
      "resource": 4194,
      "840": 4195,
      "ProgramData": 4196,
      "SeDebug": 4197,
      "SeDebugPrivilege": 4198,
      "PT": 4199,
      "247": 4200,
      "203": 4201,
      "cdxml": 4202,
      "AHsAI": 4203,
      "Wmi": 4204,
      "6279": 4205,
      "FD": 4206,
      "compil": 4207,
      "ParentProcessId": 4208,
      "675": 4209,
      "Yes": 4210,
      "NLS": 4211,
      ",,,,,,,,,,,,,,,,,,": 4212,
      "3AEIAM": 4213,
      "mscor": 4214,
      "ps1": 4215,
      "iss": 4216,
      "options": 4217,
      "SystemEnvironment": 4218,
      "UserImpersonatePrivilege": 4219,
      "SeLoad": 4220,
      "SeDelegate": 4221,
      "SeSystemEnvironment": 4222,
      "SessionUserImpersonatePrivilege": 4223,
      "DriverPrivilege": 4224,
      "SeLoadDriverPrivilege": 4225,
      "SeDelegateSessionUserImpersonatePrivilege": 4226,
      "SeSystemEnvironmentPrivilege": 4227,
      "KAAk": 4228,
      "READ_CONTROL": 4229,
      "17034": 4230,
      "appxm": 4231,
      "3f1": 4232,
      ",,,,,,,,,,,,,,,,,,,,,,,,,,,,,,,,,,,,,,,,,,,,,,,,,,,,,,,": 4233,
      "4491": 4234,
      "subc": 4235,
      "################": 4236,
      "4AGk": 4237,
      "ont": 4238,
      "6059": 4239,
      "SEC": 4240,
      "AFY": 4241,
      "\",['": 4242,
      "Pl": 4243,
      "appxmain_31bf3856ad364e35_10": 4244,
      "f0d601": 4245,
      "vb": 4246,
      "occ": 4247,
      "AZQAu": 4248,
      "083": 4249,
      "a19": 4250,
      "294": 4251,
      "Force": 4252,
      "hard": 4253,
      "-,": 4254,
      "uld": 4255,
      "eb6f": 4256,
      "Ph": 4257,
      "[]]": 4258,
      "a0d": 4259,
      "7e0": 4260,
      "Invocation": 4261,
      "84bb": 4262,
      "Enumer": 4263,
      "Restricted": 4264,
      "process_": 4265,
      "page": 4266,
      "iagn": 4267,
      "oin": 4268,
      "300": 4269,
      "idden": 4270,
      "prec": 4271,
      "d6a": 4272,
      "7a5": 4273,
      "FileName": 4274,
      "payload": 4275,
      "506": 4276,
      "iv": 4277,
      "ByQuery": 4278,
      "JK": 4279,
      "4eeb": 4280,
      "Assembly": 4281,
      "132": 4282,
      "vate": 4283,
      "SEC699": 4284,
      "YQBiAGw": 4285,
      "4798": 4286,
      "PackageFiles": 4287,
      "128": 4288,
      "KQAg": 4289,
      "uration": 4290,
      "4875": 4291,
      "property": 4292,
      "IAQQBu": 4293,
      "0d7f": 4294,
      "tes": 4295,
      "Extension": 4296,
      "d170": 4297,
      "resultobj": 4298,
      "Properties": 4299,
      "ZQBs": 4300,
      "ff908": 4301,
      "f60d7f": 4302,
      "e9eb6f": 4303,
      "173ff908": 4304,
      "e9eb6ff60d7f": 4305,
      "782e": 4306,
      "HM": 4307,
      "Pass": 4308,
      "156": 4309,
      "AGUAcwAg": 4310,
      "have": 4311,
      "e8c7": 4312,
      "bd22": 4313,
      "Lower": 4314,
      "10659": 4315,
      "SS": 4316,
      "2400": 4317,
      "97c5": 4318,
      "565f": 4319,
      "AEEARwB3": 4320,
      "Anal": 4321,
      "2063": 4322,
      "01dd": 4323,
      "740": 4324,
      "2e57c": 4325,
      "e8c72e57c": 4326,
      "565fe8c72e57c": 4327,
      "01dd565fe8c72e57c": 4328,
      "4d0": 4329,
      "ostic": 4330,
      "IMP": 4331,
      "iAEEAR": 4332,
      "Svc": 4333,
      "21T17": 4334,
      "ecc": 4335,
      "986": 4336,
      "directory": 4337,
      "sets": 4338,
      "svw": 4339,
      "mscorsvw": 4340,
      "HASH": 4341,
      "IMPHASH": 4342,
      "NlcnQu": 4343,
      "HR0c": 4344,
      "Hashes": 4345,
      "mbo": 4346,
      "gt": 4347,
      "Disallow": 4348,
      "celerator": 4349,
      "raph": 4350,
      "DisallowStart": 4351,
      "220": 4352,
      "emaph": 4353,
      "emaphore": 4354,
      "8f00": 4355,
      "AHUAZQA": 4356,
      "codepage": 4357,
      "__cmdletization_methodParameters": 4358,
      "0x7e0": 4359,
      "%\\": 4360,
      "mbols": 4361,
      "iagnostic": 4362,
      "supp": 4363,
      "gen": 4364,
      "ograph": 4365,
      "l1": 4366,
      "0e5b": 4367,
      "queryBuilder": 4368,
      "__cmdletization_queryBuilder": 4369,
      "ptograph": 4370,
      "__cmdletization_values": 4371,
      "Install": 4372,
      "75e5": 4373,
      "800878": 4374,
      "922938": 4375,
      "768800878": 4376,
      "10659285": 4377,
      "2063922938": 4378,
      "4d20": 4379,
      "down": 4380,
      "Full": 4381,
      "8ef0": 4382,
      "AUQBBAG": 4383,
      "40360e5b": 4384,
      "f393e": 4385,
      "3f1f393e": 4386,
      "40360e5b8ef0": 4387,
      "0917": 4388,
      "7d": 4389,
      "fQA": 4390,
      "ZE": 4391,
      "kto": 4392,
      "5d2ac": 4393,
      "e0": 4394,
      "use": 4395,
      "AcwB": 4396,
      "4674": 4397,
      "ames": 4398,
      "pto": 4399,
      "util": 4400,
      "sb": 4401,
      "olum": 4402,
      "cimwin32": 4403,
      "409": 4404,
      "framed": 4405,
      "framedyn": 4406,
      "0xC004": 4407,
      "1015": 4408,
      "ysis": 4409,
      "FA": 4410,
      "may": 4411,
      "os_version": 4412,
      "AdAAgAD": 4413,
      "\"\"`": 4414,
      "log_path": 4415,
      "chem": 4416,
      "PAR": 4417,
      "0x17": 4418,
      "Ly": 4419,
      "ngen": 4420,
      "tual": 4421,
      "7464": 4422,
      "3218": 4423,
      "Terminal": 4424,
      "KQAgAHs": 4425,
      "pand": 4426,
      "framedynos": 4427,
      "ting": 4428,
      "Analysis": 4429,
      "748": 4430,
      "3732": 4431,
      "ControlSet": 4432,
      "RS": 4433,
      ",,,,,,,,,,,,,,,,,,,,,,,,,,,,,,,,,,,,,,,,,,,,,,,,,,,,,,,,,,,,,,,,,,,,,,,,,,,,,,,,,,,,,,,,,,,,,,,,,,,,,,,,,,,,,,,,,,,,,,,,,,,,,,,,,,,,,,,,,,,,,,,,,,,,,,,,,,,,,,,,,,,,,,,,,,,,,,,,,,,,,,,,,,,,,,,,,,,,,,,,,,,,,,,,": 4434,
      "b02": 4435,
      "ules": 4436,
      "ktop": 4437,
      "nAAo": 4438,
      "NS": 4439,
      "ps_version": 4440,
      ",,,,,,,,,,,,,,,,,,,,,,,,,,,,,,,,,,,,,,,,,,,,,,,,,,,,,,,,,,,,,,,,,,,,,,,,,,,,,,,,,,,,,,,,,,,,,,,,,,,,,,,,,,,,,,,,,,,,,,,,,,,,,,,,,,,,,,,,,,,,,,,,,,,,,,,,,,,,,,,,,,,,,,,,,,,,,,,,,,,,,,,,,,,,,,,,,,,,,,,,,,,,,,,,,,,,,,,,,,,,,,,,,,,,,,,,,,,,,,,,,,,,,,,,,,,,,,,,,,,,,,,,,,,,,,,,,,,,,,,,,,,,,,,,": 4441,
      "ft": 4442,
      "4AGkAdAAgAD": 4443,
      "4AGkAdAAgADE": 4444,
      "amd64_": 4445,
      "ov": 4446,
      "AaQBy": 4447,
      "Company": 4448,
      "SessionId": 4449,
      "gAS": 4450,
      "49e1": 4451,
      "1dc": 4452,
      "4848": 4453,
      ",,,,,,,,,,,,,,,,,,,,,,,,,,,,,,": 4454,
      "4a5e": 4455,
      "AZQByAHMAaQB": 4456,
      "AFYAZQByAHMAaQB": 4457,
      "AFYAZQByAHMAaQBvAG4": 4458,
      "5138": 4459,
      ",,,,,,,,,,,,,,,,,,,,,,,,,,,,,,,,,,,,,,,,,,,,,,,,,,,,,,,,,,,,,,,,,,,,,,,,,,,,,,,,,,,,,,,,,,,,,,,,,,,,,,,,,,,,,,,,,,,,,,,,,,,,,,,,,,,,,,,,,,,,,,,,,,,,,,,,,,,,,,,,,,,,,,,,,,,,,,,,,,,,,,,,,,,,,,,,,,,,,,,,,,,,,,,,,,,,,,,,,,,,,,,,,,,,,,,,,,,,,,,,,,,,,,,,,,,,,,,,,,,,,,,,,,,,,,,,,,,,,,,,,,,,,,,,,,,,,,,,,,,,,,,,,,,,,,,,,,,,,,,,,,,,,,,,,,,,,,,,": 4460,
      "746_none_": 4461,
      "ick": 4462,
      "gBm": 4463,
      "FileVersion": 4464,
      "1854": 4465,
      "Stack": 4466,
      "gor": 4467,
      "OriginalFileName": 4468,
      "Config": 4469,
      "218": 4470,
      "QBBAFkAUQBC": 4471,
      "remote": 4472,
      "gorith": 4473,
      ",,,,,,,,,,,,,,,,,,,,,,,,,": 4474,
      "current": 4475,
      "working": 4476,
      "af05": 4477,
      "LogonId": 4478,
      "LogonGuid": 4479,
      "IntegrityLevel": 4480,
      "TerminalSessionId": 4481,
      "gorithm": 4482,
      "ParentImage": 4483,
      "ParentCommandLine": 4484,
      "ParentProcessGuid": 4485,
      "CurrentDirectory": 4486,
      "process_start": 4487,
      "Been": 4488,
      "BeenThr": 4489,
      "csc": 4490,
      "07675": 4491,
      "BeenThrown": 4492,
      "0xa": 4493,
      "319886": 4494,
      "031319886": 4495,
      "a0d07675": 4496,
      "031319886a0d07675": 4497,
      "HasBeenThrown": 4498,
      "clu": 4499,
      "exceptionHasBeenThrown": 4500,
      "Startup": 4501,
      "__cmdletization_exceptionHasBeenThrown": 4502,
      "EdgeUpdate": 4503,
      "IAfQA": 4504,
      "started": 4505,
      "1464": 4506,
      "ACgB9": 4507,
      "http": 4508,
      "jA": 4509,
      "ab0": 4510,
      "sa": 4511,
      "aliases": 4512,
      "Kernel": 4513,
      "0x16": 4514,
      "45235": 4515,
      "624848": 4516,
      "3375138": 4517,
      "3732624848": 4518,
      "452354491": 4519,
      "3375138686": 4520,
      "185434": 4521,
      "3054798": 4522,
      "2780917": 4523,
      "1015185434": 4524,
      "305479810": 4525,
      "278091745": 4526,
      "2N": 4527,
      "0B": 4528,
      "3201": 4529,
      "7bab": 4530,
      "488": 4531,
      "526": 4532,
      "wQ": 4533,
      "RC": 4534,
      "ADMALgA": 4535,
      "358": 4536,
      "AHMAaQBiAGw": 4537,
      "ki": 4538,
      "Sy": 4539,
      "Cryptograph": 4540,
      "AaQBmACAA": 4541,
      "Crypto": 4542,
      "taskhost": 4543,
      "3972": 4544,
      "},,,,,,,,": 4545,
      "AQU": 4546,
      "taskhostw": 4547,
      "4695": 4548,
      "KQAgAHsACgA": 4549,
      "f8b9": 4550,
      "27T21": 4551,
      ",,,,,,,,,,,,,,,,,,,": 4552,
      "High": 4553,
      "9v": 4554,
      "der": 4555,
      "000000002400": 4556,
      "_name": 4557,
      "4f03": 4558,
      "NewEngineState": 4559,
      "PreviousEngineState": 4560,
      "146": 4561,
      "hvc": 4562,
      "0001": 4563,
      "915": 4564,
      "67d5": 4565,
      "a6d7": 4566,
      "gA6AC": 4567,
      "gBlAHc": 4568,
      "atform": 4569,
      "sAC": 4570,
      "AaQBmACAAKAAk": 4571,
      "a19e": 4572,
      "WM": 4573,
      "eb7bab": 4574,
      "c5fc7": 4575,
      "d6a67d5": 4576,
      "eb7bab73": 4577,
      "d6a67d5c5fc7": 4578,
      "TAGgA": 4579,
      "iADMALgA": 4580,
      "nAHsAI": 4581,
      "sAHQ": 4582,
      "sAGUAZ": 4583,
      "wACAAb": 4584,
      "xAHU": 4585,
      "zAGc": 4586,
      "QBzAGc": 4587,
      "IAKQAgAHsACgA": 4588,
      "AIgA6AC": 4589,
      "aQBsAGUAZ": 4590,
      "AGwAIAB": 4591,
      "AZQByAC": 4592,
      "AZQB4AGkAdAAgADE": 4593,
      "AdAByAHUAZQA": 4594,
      "ACAALQBsAHQ": 4595,
      "AAoAaQBmACAAKAAk": 4596,
      "IAbQBzAGc": 4597,
      "AGUAcgBTAGgA": 4598,
      "wByACAAb": 4599,
      "AFAAbwB3": 4600,
      "ADoAdAByAHUAZQA": 4601,
      "2ADMALgA": 4602,
      "wACIAKQAgAHsACgA": 4603,
      "AIABbAFYAZQByAHMAaQBvAG4": 4604,
      "AAiADoAdAByAHUAZQA": 4605,
      "AXQAiADMALgA": 4606,
      "ACAAJABuAHUAbABsAAoAaQBmACAAKAAk": 4607,
      "AZQAgAHIAZQB": 4608,
      "AFAAUwBWAGUAcgBzAGkAbwBuAFQA": 4609,
      "AFAAUwBWAGUAcgBzAGkAbwBuACAALQBsAHQ": 4610,
      "AGEAaQBsAGUAZ": 4611,
      "AZQAuAFAAUwBWAGUAcgBzAGkAbwBuACAALQBsAHQ": 4612,
      "YQBiAGwAZQAuAFAAUwBWAGUAcgBzAGkAbwBuACAALQBsAHQ": 4613,
      "IAQQBuAHMAaQBiAGw": 4614,
      "ZQBsAGwAIAB": 4615,
      "AGUAcwAgAFAAbwB3": 4616,
      "nAAoAZQB4AGkAdAAgADE": 4617,
      "AaQByAGUAcwAgAFAAbwB3": 4618,
      "gBmAGEAaQBsAGUAZ": 4619,
      "IAfQAnAAoAZQB4AGkAdAAgADE": 4620,
      "ACgB9AAoAJABlAHgAZQBjAF8AdwByAGEAcABwAGUAcgBfAHMAdAByACAAPQAgACQAaQBuAHAAdQB0ACAAfAAgAE8AdQB0AC0AUwB0AHIAaQBuAGcACgAkAHMAcABsAGkAdABfAHAAYQByAHQAcwAgAD0AIAAkAGUAeABlAGMAXwB3AHIAYQBwAHAAZQByAF8AcwB0AHIALgBTAHAAbABpAHQAKABAACgAIgBgADAAYAAwAGAAMABgADAAIgApACwAIAAyACwAIABbAFMAdAByAGkAbgBnAFMAcABsAGkAdABPAHAAdABpAG8AbgBzAF0AOgA6AFIAZQBtAG8AdgBlAEUAbQBwAHQAeQBFAG4AdAByAGkAZQBzACkACgBJAGYAIAAoAC0AbgBvAHQAIAAkAHMAcABsAGkAdABfAHAAYQByAHQAcwAuAEwAZQBuAGcAdABoACAALQBlAHEAIAAyACkAIAB7ACAAdABoAHIAbwB3ACAAIgBpAG4AdgBhAGwAaQBkACAAcABhAHkAbABvAGEAZAAiACAAfQAKAFMAZQB0AC0AVgBhAHIAaQBhAGIAbABlACAALQBOAGEAbQBlACAAagBzAG8AbgBfAHIAYQB3ACAALQBWAGEAbAB1AGUAIAAkAHMAcABsAGkAdABfAHAAYQByAHQAcwBbADEAXQAKACQAZQB4AGUAYwBfAHcAcgBhAHAAcABlAHIAIAA9ACAAWwBTAGMAcgBpAHAAdABCAGwAbwBjAGsAXQA6ADoAQwByAGUAYQB0AGUAKAAkAHMAcABsAGkAdABfAHAAYQByAHQAcwBbADAAXQApAAoAJgAkAGUAeABlAGMAXwB3AHIAYQBwAHAAZQByAA": 4621,
      "gBlAHcAZQByAC": 4622,
      "sACIAbQBzAGc": 4623,
      "nAHsAIgBmAGEAaQBsAGUAZ": 4624,
      "wACAAbwByACAAb": 4625,
      "xAHUAaQByAGUAcwAgAFAAbwB3": 4626,
      "AIgA6ACIAQQBuAHMAaQBiAGw": 4627,
      "AGUAcgBTAGgAZQBsAGwAIAB": 4628,
      "2ADMALgAwACAAbwByACAAb": 4629,
      "wACIAKQAgAHsACgAnAHsAIgBmAGEAaQBsAGUAZ": 4630,
      "AIABbAFYAZQByAHMAaQBvAG4AXQAiADMALgA": 4631,
      "AAiADoAdAByAHUAZQAsACIAbQBzAGc": 4632,
      "ACAAJABuAHUAbABsAAoAaQBmACAAKAAkAFAAUwBWAGUAcgBzAGkAbwBuAFQA": 4633,
      "AZQAgAHIAZQBxAHUAaQByAGUAcwAgAFAAbwB3": 4634,
      "YQBiAGwAZQAuAFAAUwBWAGUAcgBzAGkAbwBuACAALQBsAHQAIABbAFYAZQByAHMAaQBvAG4AXQAiADMALgA": 4635,
      "IAfQAnAAoAZQB4AGkAdAAgADEACgB9AAoAJABlAHgAZQBjAF8AdwByAGEAcABwAGUAcgBfAHMAdAByACAAPQAgACQAaQBuAHAAdQB0ACAAfAAgAE8AdQB0AC0AUwB0AHIAaQBuAGcACgAkAHMAcABsAGkAdABfAHAAYQByAHQAcwAgAD0AIAAkAGUAeABlAGMAXwB3AHIAYQBwAHAAZQByAF8AcwB0AHIALgBTAHAAbABpAHQAKABAACgAIgBgADAAYAAwAGAAMABgADAAIgApACwAIAAyACwAIABbAFMAdAByAGkAbgBnAFMAcABsAGkAdABPAHAAdABpAG8AbgBzAF0AOgA6AFIAZQBtAG8AdgBlAEUAbQBwAHQAeQBFAG4AdAByAGkAZQBzACkACgBJAGYAIAAoAC0AbgBvAHQAIAAkAHMAcABsAGkAdABfAHAAYQByAHQAcwAuAEwAZQBuAGcAdABoACAALQBlAHEAIAAyACkAIAB7ACAAdABoAHIAbwB3ACAAIgBpAG4AdgBhAGwAaQBkACAAcABhAHkAbABvAGEAZAAiACAAfQAKAFMAZQB0AC0AVgBhAHIAaQBhAGIAbABlACAALQBOAGEAbQBlACAAagBzAG8AbgBfAHIAYQB3ACAALQBWAGEAbAB1AGUAIAAkAHMAcABsAGkAdABfAHAAYQByAHQAcwBbADEAXQAKACQAZQB4AGUAYwBfAHcAcgBhAHAAcABlAHIAIAA9ACAAWwBTAGMAcgBpAHAAdABCAGwAbwBjAGsAXQA6ADoAQwByAGUAYQB0AGUAKAAkAHMAcABsAGkAdABfAHAAYQByAHQAcwBbADAAXQApAAoAJgAkAGUAeABlAGMAXwB3AHIAYQBwAHAAZQByAA": 4636,
      "gBlAHcAZQByACIAfQAnAAoAZQB4AGkAdAAgADEACgB9AAoAJABlAHgAZQBjAF8AdwByAGEAcABwAGUAcgBfAHMAdAByACAAPQAgACQAaQBuAHAAdQB0ACAAfAAgAE8AdQB0AC0AUwB0AHIAaQBuAGcACgAkAHMAcABsAGkAdABfAHAAYQByAHQAcwAgAD0AIAAkAGUAeABlAGMAXwB3AHIAYQBwAHAAZQByAF8AcwB0AHIALgBTAHAAbABpAHQAKABAACgAIgBgADAAYAAwAGAAMABgADAAIgApACwAIAAyACwAIABbAFMAdAByAGkAbgBnAFMAcABsAGkAdABPAHAAdABpAG8AbgBzAF0AOgA6AFIAZQBtAG8AdgBlAEUAbQBwAHQAeQBFAG4AdAByAGkAZQBzACkACgBJAGYAIAAoAC0AbgBvAHQAIAAkAHMAcABsAGkAdABfAHAAYQByAHQAcwAuAEwAZQBuAGcAdABoACAALQBlAHEAIAAyACkAIAB7ACAAdABoAHIAbwB3ACAAIgBpAG4AdgBhAGwAaQBkACAAcABhAHkAbABvAGEAZAAiACAAfQAKAFMAZQB0AC0AVgBhAHIAaQBhAGIAbABlACAALQBOAGEAbQBlACAAagBzAG8AbgBfAHIAYQB3ACAALQBWAGEAbAB1AGUAIAAkAHMAcABsAGkAdABfAHAAYQByAHQAcwBbADEAXQAKACQAZQB4AGUAYwBfAHcAcgBhAHAAcABlAHIAIAA9ACAAWwBTAGMAcgBpAHAAdABCAGwAbwBjAGsAXQA6ADoAQwByAGUAYQB0AGUAKAAkAHMAcABsAGkAdABfAHAAYQByAHQAcwBbADAAXQApAAoAJgAkAGUAeABlAGMAXwB3AHIAYQBwAHAAZQByAA": 4637,
      "AIgA6ACIAQQBuAHMAaQBiAGwAZQAgAHIAZQBxAHUAaQByAGUAcwAgAFAAbwB3": 4638,
      "AGUAcgBTAGgAZQBsAGwAIAB2ADMALgAwACAAbwByACAAb": 4639,
      "wACIAKQAgAHsACgAnAHsAIgBmAGEAaQBsAGUAZAAiADoAdAByAHUAZQAsACIAbQBzAGc": 4640,
      "ACAAJABuAHUAbABsAAoAaQBmACAAKAAkAFAAUwBWAGUAcgBzAGkAbwBuAFQAYQBiAGwAZQAuAFAAUwBWAGUAcgBzAGkAbwBuACAALQBsAHQAIABbAFYAZQByAHMAaQBvAG4AXQAiADMALgA": 4641,
      "AIgA6ACIAQQBuAHMAaQBiAGwAZQAgAHIAZQBxAHUAaQByAGUAcwAgAFAAbwB3AGUAcgBTAGgAZQBsAGwAIAB2ADMALgAwACAAbwByACAAb": 4642,
      "wACIAKQAgAHsACgAnAHsAIgBmAGEAaQBsAGUAZAAiADoAdAByAHUAZQAsACIAbQBzAGcAIgA6ACIAQQBuAHMAaQBiAGwAZQAgAHIAZQBxAHUAaQByAGUAcwAgAFAAbwB3AGUAcgBTAGgAZQBsAGwAIAB2ADMALgAwACAAbwByACAAb": 4643,
      "ACAAJABuAHUAbABsAAoAaQBmACAAKAAkAFAAUwBWAGUAcgBzAGkAbwBuAFQAYQBiAGwAZQAuAFAAUwBWAGUAcgBzAGkAbwBuACAALQBsAHQAIABbAFYAZQByAHMAaQBvAG4AXQAiADMALgAwACIAKQAgAHsACgAnAHsAIgBmAGEAaQBsAGUAZAAiADoAdAByAHUAZQAsACIAbQBzAGcAIgA6ACIAQQBuAHMAaQBiAGwAZQAgAHIAZQBxAHUAaQByAGUAcwAgAFAAbwB3AGUAcgBTAGgAZQBsAGwAIAB2ADMALgAwACAAbwByACAAb": 4644,
      "ACAAJABuAHUAbABsAAoAaQBmACAAKAAkAFAAUwBWAGUAcgBzAGkAbwBuAFQAYQBiAGwAZQAuAFAAUwBWAGUAcgBzAGkAbwBuACAALQBsAHQAIABbAFYAZQByAHMAaQBvAG4AXQAiADMALgAwACIAKQAgAHsACgAnAHsAIgBmAGEAaQBsAGUAZAAiADoAdAByAHUAZQAsACIAbQBzAGcAIgA6ACIAQQBuAHMAaQBiAGwAZQAgAHIAZQBxAHUAaQByAGUAcwAgAFAAbwB3AGUAcgBTAGgAZQBsAGwAIAB2ADMALgAwACAAbwByACAAbgBlAHcAZQByACIAfQAnAAoAZQB4AGkAdAAgADEACgB9AAoAJABlAHgAZQBjAF8AdwByAGEAcABwAGUAcgBfAHMAdAByACAAPQAgACQAaQBuAHAAdQB0ACAAfAAgAE8AdQB0AC0AUwB0AHIAaQBuAGcACgAkAHMAcABsAGkAdABfAHAAYQByAHQAcwAgAD0AIAAkAGUAeABlAGMAXwB3AHIAYQBwAHAAZQByAF8AcwB0AHIALgBTAHAAbABpAHQAKABAACgAIgBgADAAYAAwAGAAMABgADAAIgApACwAIAAyACwAIABbAFMAdAByAGkAbgBnAFMAcABsAGkAdABPAHAAdABpAG8AbgBzAF0AOgA6AFIAZQBtAG8AdgBlAEUAbQBwAHQAeQBFAG4AdAByAGkAZQBzACkACgBJAGYAIAAoAC0AbgBvAHQAIAAkAHMAcABsAGkAdABfAHAAYQByAHQAcwAuAEwAZQBuAGcAdABoACAALQBlAHEAIAAyACkAIAB7ACAAdABoAHIAbwB3ACAAIgBpAG4AdgBhAGwAaQBkACAAcABhAHkAbABvAGEAZAAiACAAfQAKAFMAZQB0AC0AVgBhAHIAaQBhAGIAbABlACAALQBOAGEAbQBlACAAagBzAG8AbgBfAHIAYQB3ACAALQBWAGEAbAB1AGUAIAAkAHMAcABsAGkAdABfAHAAYQByAHQAcwBbADEAXQAKACQAZQB4AGUAYwBfAHcAcgBhAHAAcABlAHIAIAA9ACAAWwBTAGMAcgBpAHAAdABCAGwAbwBjAGsAXQA6ADoAQwByAGUAYQB0AGUAKAAkAHMAcABsAGkAdABfAHAAYQByAHQAcwBbADAAXQApAAoAJgAkAGUAeABlAGMAXwB3AHIAYQBwAHAAZQByAA": 4645,
      "CurrentVersion": 4646,
      "oZI": 4647,
      "NAQ": 4648,
      "hvcNAQ": 4649,
      "Credential": 4650,
      "--------------------------------": 4651,
      "yb": 4652,
      "part": 4653,
      "26931": 4654,
      "precation": 4655,
      "6500": 4656,
      "8e1e": 4657,
      "555908": 4658,
      "12f4": 4659,
      "d2012f4": 4660,
      "26931d2012f4": 4661,
      "555908d1": 4662,
      "JKoZI": 4663,
      "Member": 4664,
      "pace": 4665,
      "20c": 4666,
      "13800": 4667,
      "completed": 4668,
      "YgB": 4669,
      "6885": 4670,
      "18798": 4671,
      "lies": 4672,
      "emblies": 4673,
      "uZGlnaW": 4674,
      "roker": 4675,
      "110756": 4676,
      "308807": 4677,
      "823218": 4678,
      "728630": 4679,
      "1464728630": 4680,
      "1879813800": 4681,
      "1107566885": 4682,
      "3088073201": 4683,
      "823218052": 4684,
      "1h": 4685,
      "ED": 4686,
      "client": 4687,
      "grBg": 4688,
      "BggrBg": 4689,
      "EFBQ": 4690,
      "BggrBgEFBQ": 4691,
      "CodeAnalysis": 4692,
      "CurrentControlSet": 4693,
      "Y29tL": 4694,
      "B1": 4695,
      "AMETE": 4696,
      "PARAMETE": 4697,
      "PARAMETER": 4698,
      "0x3e": 4699,
      "ovL": 4700,
      "perience": 4701,
      "2ab": 4702,
      "5212": 4703,
      "gnore": 4704,
      "465": 4705,
      "dest": 4706,
      "rt": 4707,
      "Office16": 4708,
      "c700": 4709,
      "1921": 4710,
      "x86_microsoft": 4711,
      "Runtime": 4712,
      "$,,,,": 4713,
      "Ignore": 4714,
      "AFkAQQB": 4715,
      "Failure": 4716,
      "Base": 4717,
      "335": 4718,
      "Pub": 4719,
      "239": 4720,
      "les": 4721,
      "det": 4722,
      "16df": 4723,
      "found": 4724,
      "PLE": 4725,
      "00000000c700": 4726,
      "MAawBBAE": 4727,
      "ecc5d": 4728,
      "AMPLE": 4729,
      "diff": 4730,
      "9c840": 4731,
      "1_none_ecc5d": 4732,
      "2879c840": 4733,
      "1_none_ecc5d2879c840": 4734,
      "1_none_ecc5d2879c840ab0": 4735,
      "1100": 4736,
      "EXAMPLE": 4737,
      "ign": 4738,
      "Y3": 4739,
      "CLR": 4740,
      ")])(": 4741,
      "bedd": 4742,
      "clude": 4743,
      "e14": 4744,
      "Count": 4745,
      "Embedd": 4746,
      "b49": 4747,
      "bf9e": 4748,
      "updated": 4749,
      "ByName": 4750,
      "1200": 4751,
      "Computer": 4752,
      ")\\": 4753,
      "4c67": 4754,
      "ole": 4755,
      "StackTrace": 4756,
      "1900": 4757,
      "306": 4758,
      "'/><": 4759,
      "169": 4760,
      "3f2b": 4761,
      "328f": 4762,
      "2fe": 4763,
      "pass": 4764,
      ")(?)(?)(?": 4765,
      "subcategory": 4766,
      "f2b37": 4767,
      "emand": 4768,
      "8d1dc": 4769,
      "01f2b37": 4770,
      "3f2b1921": 4771,
      "8d1dc01f2b37": 4772,
      "@($": 4773,
      "amespace": 4774,
      "Win32": 4775,
      "158": 4776,
      "[(?": 4777,
      "arguments": 4778,
      "17974": 4779,
      "6a271": 4780,
      "AEEAWgBRAEIAe": 4781,
      "Protocol": 4782,
      "hash": 4783,
      "ba00": 4784,
      "AEEARwA": 4785,
      "AEkAQQB": 4786,
      "Ew": 4787,
      "EE": 4788,
      "YI": 4789,
      "mum": 4790,
      "4f6": 4791,
      "217": 4792,
      "DAC": 4793,
      "A1": 4794,
      "miss": 4795,
      "Begin": 4796,
      "ByAssociatedNetFirewall": 4797,
      "Wake": 4798,
      "Main": 4799,
      "2R": 4800,
      "assemblies": 4801,
      "F014": 4802,
      "ish": 4803,
      ")(?)(?)(?)(?)(?)(?)(?": 4804,
      "0xC004F014": 4805,
      "[(?)(?)(?)(?)(?)(?)(?)(?": 4806,
      "[(?)(?)(?)(?)(?)(?)(?)(?)])(": 4807,
      "0d00": 4808,
      "bose": 4809,
      "cmdlet": 4810,
      "Qg": 4811,
      "{'": 4812,
      "chest": 4813,
      "Sharp": 4814,
      "CSharp": 4815,
      "e703": 4816,
      "Thru": 4817,
      "MA0": 4818,
      "Go": 4819,
      "Trigger": 4820,
      "MA0GC": 4821,
      "Encoding": 4822,
      "Vir": 4823,
      "Detailed": 4824,
      "CF": 4825,
      "ds": 4826,
      "LmNvb": 4827,
      "board": 4828,
      "AEEAQwAw": 4829,
      "vari": 4830,
      "entry": 4831,
      "yo": 4832,
      "ZXJ0LmNvb": 4833,
      "ally": 4834,
      "AEEAQwBBAEEAT": 4835,
      "gAUQBBAG": 4836,
      "Context": 4837,
      "jZXJ0LmNvb": 4838,
      "Profiles": 4839,
      "f2d": 4840,
      "2t": 4841,
      "05T07": 4842,
      "RAEIAcwBBAE": 4843,
      "face": 4844,
      "specific": 4845,
      "Assets": 4846,
      "8cbf": 4847,
      "GA1Ud": 4848,
      "clr": 4849,
      "disk": 4850,
      "JKoZIhvcNAQ": 4851,
      "ould": 4852,
      "ions": 4853,
      "388": 4854,
      "ertific": 4855,
      "ables": 4856,
      "67e": 4857,
      "1e7": 4858,
      "OWN": 4859,
      "WRITE_DAC": 4860,
      "BggrBgEFBQc": 4861,
      "RpZ2lDZXJ0": 4862,
      "WRITE_OWN": 4863,
      "WRITE_OWNER": 4864,
      "b7f": 4865,
      "F5": 4866,
      "cases": 4867,
      "fl": 4868,
      "wgg": 4869,
      "ansible_": 4870,
      "0ec": 4871,
      "gBBAEEA": 4872,
      "ash": 4873,
      "verbose": 4874,
      "Y29tL0": 4875,
      "added": 4876,
      "DovL": 4877,
      "ultip": 4878,
      "HR0cDovL": 4879,
      "Public": 4880,
      "correl": 4881,
      "(@('": 4882,
      "[\"\"": 4883,
      "Virtual": 4884,
      "Stopped": 4885,
      "500": 4886,
      "406": 4887,
      "origin": 4888,
      "exit": 4889,
      "499": 4890,
      "Groups": 4891,
      "onent": 4892,
      "_params": 4893,
      "CimInstance": 4894,
      ",,,,,,,['": 4895,
      "PSVersion": 4896,
      "invalid": 4897,
      "UM": 4898,
      "VT": 4899,
      "ultiple": 4900,
      "Hidden": 4901,
      "0K": 4902,
      "202": 4903,
      "Volum": 4904,
      "ifier": 4905,
      "AQQBHADQ": 4906,
      "E4": 4907,
      "D6": 4908,
      "9a5": 4909,
      "6_none_": 4910,
      "464": 4911,
      "ertificate": 4912,
      "encod": 4913,
      "downlevel": 4914,
      "ByProperty": 4915,
      "de67": 4916,
      ".,": 4917,
      "2C": 4918,
      "8332": 4919,
      "cm": 4920,
      "4774": 4921,
      "Demand": 4922,
      "emory": 4923,
      "\",\"['": 4924,
      "ewy": 4925,
      "vide": 4926,
      "xyewy": 4927,
      "5n1h": 4928,
      "2txyewy": 4929,
      "5n1h2txyewy": 4930,
      "106": 4931,
      ",,,,,,,,,,,,,,,,,,,,,,,,,,,,,,,,,,,,,,,,,,,,,,,,,,,,,,,,,,,,,,,,,,,,,,,,,,,,,,,,,,,,,,,,,,,,,,,,,,,,,,,,,,,,,,,,,,,,,,,,,,,,,,,,,,,,,,,,,,,,,,,,,,,,,,,,,,,,,,,,,,,,,,,,,,,,,,,,,,,,,,,,,,,,,,,,,,,,,,,,,,,,,,,,,,,,,,,,,,,,,,,,,,,,,,,,,,,,,,,,,,,,,,,,,,,,,,,,,,,,,,,,,,,,,,,,,,,,,,,,,,,,,,,,,,,,,,,,,,,,,,,,": 4932,
      "chestrator": 4933,
      "AFQ": 4934,
      "4cb1": 4935,
      "0a05": 4936,
      "Form": 4937,
      "available": 4938,
      "367": 4939,
      "b726": 4940,
      "Registration": 4941,
      "Orchestrator": 4942,
      "Built": 4943,
      "iq": 4944,
      "000000001900": 4945,
      "about": 4946,
      "G9": 4947,
      "tmp": 4948,
      "R0": 4949,
      "reference": 4950,
      "COM": 4951,
      "fed": 4952,
      "4fee": 4953,
      "25d9": 4954,
      "8014": 4955,
      "RAEEAZ": 4956,
      "fd4b": 4957,
      "b2c1": 4958,
      "9692": 4959,
      "),{": 4960,
      "OnDemand": 4961,
      "214c": 4962,
      "ec0a": 4963,
      "ome": 4964,
      "Enable": 4965,
      "'--": 4966,
      "AHcAQgAw": 4967,
      "vt": 4968,
      "b7266d": 4969,
      "09b7266d": 4970,
      "4b8332": 4971,
      "AQQBGAE0AQQB": 4972,
      "54a507": 4973,
      "0d1de67": 4974,
      "16df8014": 4975,
      "ba0054a507": 4976,
      "477416df8014": 4977,
      "0a05ba0054a507": 4978,
      "25d94b8332": 4979,
      "0d1de6725d94b8332": 4980,
      "0a05ba0054a5077a5": 4981,
      "22T22": 4982,
      "631": 4983,
      "PassThru": 4984,
      ",,,,,,,,,,,,,,{": 4985,
      "4a6": 4986,
      "\"\"$": 4987,
      "keyboard": 4988,
      "0_none_": 4989,
      "raw_": 4990,
      "d801": 4991,
      "missions": 4992,
      "Drive": 4993,
      "plor": 4994,
      "apter": 4995,
      "CD": 4996,
      "_matches": 4997,
      "compile_": 4998,
      "Format": 4999,
      "actual_": 5000,
      "E5": 5001,
      "255": 5002,
      "reakpoint": 5003,
      "2020": 5004,
      "Sw": 5005,
      "Linked": 5006,
      "Builtin": 5007,
      "ec6": 5008,
      "ynam": 5009,
      "V4": 5010,
      "Broker": 5011,
      "UpdateOrchestrator": 5012,
      "conn": 5013,
      "ynamic": 5014,
      "Web": 5015,
      "error_params": 5016,
      "plorer": 5017,
      "pty": 5018,
      "Empty": 5019,
      "Fl": 5020,
      "KDC": 5021,
      "init": 5022,
      "2165a": 5023,
      "C7": 5024,
      "winrs": 5025,
      "20692": 5026,
      "20c21": 5027,
      "368": 5028,
      "1538": 5029,
      "change": 5030,
      "ruct": 5031,
      "manag": 5032,
      ",,,,\"['": 5033,
      "935": 5034,
      "ique": 5035,
      "Direct": 5036,
      "1300": 5037,
      "support": 5038,
      "17465": 5039,
      "4f4d0": 5040,
      "221ff": 5041,
      "2fe3b": 5042,
      "Report": 5043,
      "Generic": 5044,
      "failed": 5045,
      "black": 5046,
      "06c": 5047,
      "Active": 5048,
      "winrshost": 5049,
      "Other": 5050,
      "UserId": 5051,
      "Admin": 5052,
      "5AEEAQwBBAEEA": 5053,
      "Named": 5054,
      "QX": 5055,
      "unique": 5056,
      "zE": 5057,
      "lib": 5058,
      "Vi": 5059,
      "Option": 5060,
      "compiled": 5061,
      "ready": 5062,
      "feren": 5063,
      "Powershell": 5064,
      "db4a6": 5065,
      "??\\": 5066,
      "ab8": 5067,
      "F7": 5068,
      "ream": 5069,
      "9aff": 5070,
      "ABBAF": 5071,
      "\"\";": 5072,
      "ArrayList": 5073,
      "6Ly": 5074,
      "We": 5075,
      "10d20": 5076,
      "6c175": 5077,
      "env_": 5078,
      "Actions": 5079,
      "Category": 5080,
      "ZwBBAE": 5081,
      "args": 5082,
      "real": 5083,
      ",,,,,{": 5084,
      "audit_type": 5085,
      "ances": 5086,
      "e8b8": 5087,
      "4d71": 5088,
      "versal": 5089,
      "credential": 5090,
      "536": 5091,
      "Y2Vyd": 5092,
      "432": 5093,
      "input": 5094,
      "CAQ": 5095,
      "AnsibleError": 5096,
      "URI": 5097,
      "symbols": 5098,
      ",,,,,,,,,,,,,,,,,,,,,,,,,,,,,,,,,,,,,,,,,,,,,,,,,,,,,,,,,,,,,,,,,,,,,,,,,,,,,,,,,,,,,,,,,,,,,,,,,,,,,,,,,,,,,,,,,": 5099,
      "GG": 5100,
      "reg": 5101,
      "InvocationInfo": 5102,
      ",,,,,,,,,,,,,,,,,,,,,,,": 5103,
      "@{}": 5104,
      "f028": 5105,
      "50358": 5106,
      "407": 5107,
      "Bin": 5108,
      "UTF8": 5109,
      "IADA": 5110,
      "DnsQuery": 5111,
      "uZGlnaWNlcnQu": 5112,
      "Switch": 5113,
      "F9": 5114,
      "ident": 5115,
      "RegistrationInfo": 5116,
      "5k": 5117,
      "1843": 5118,
      "Terminate": 5119,
      "NB": 5120,
      "424": 5121,
      "c725": 5122,
      "namespace": 5123,
      "00f": 5124,
      "Glna": 5125,
      "schem": 5126,
      "36c": 5127,
      "28f0d601": 5128,
      "11Z": 5129,
      "TimeLimit": 5130,
      "ExecutionTimeLimit": 5131,
      "ven": 5132,
      "127": 5133,
      "HR0cDovL2N": 5134,
      "0x1200": 5135,
      "c3b1": 5136,
      "Argument": 5137,
      "Experience": 5138,
      "D9": 5139,
      "52651": 5140,
      "39ee": 5141,
      "4f66": 5142,
      "Principals": 5143,
      "interactive": 5144,
      ",,,,,,,,,,,,,,,,,,,,,,,,,,,,": 5145,
      "Tra": 5146,
      "vs": 5147,
      "24ae": 5148,
      "svcs": 5149,
      "9152": 5150,
      "d704": 5151,
      "b49e": 5152,
      "403": 5153,
      "e657": 5154,
      "Instances": 5155,
      "9a53": 5156,
      "Winlogon": 5157,
      "KBD": 5158,
      "Multiple": 5159,
      "IfOnBatteries": 5160,
      "DisallowStartIfOnBatteries": 5161,
      "MultipleInstances": 5162,
      "01f2d": 5163,
      "0e103": 5164,
      "05aec6": 5165,
      "a4c3b1": 5166,
      "2ac5d2ac": 5167,
      "920fed": 5168,
      "b02d704": 5169,
      "39ee0e103": 5170,
      "01f2d39ee0e103": 5171,
      "05aec6b02d704": 5172,
      "920feda4c3b1": 5173,
      "01f2d39ee0e10344d": 5174,
      "05aec6b02d7049152": 5175,
      "ingOnBatteries": 5176,
      "IfGo": 5177,
      "StopIfGo": 5178,
      "StopIfGoingOnBatteries": 5179,
      "868": 5180,
      "599": 5181,
      "MultipleInstancesPolicy": 5182,
      "stdout": 5183,
      ",\"\"": 5184,
      "568": 5185,
      "Sub": 5186,
      "IdleSettings": 5187,
      "where": 5188,
      "e55": 5189,
      "install": 5190,
      "StopOnIdle": 5191,
      "StopOnIdleEnd": 5192,
      "bool": 5193,
      "445": 5194,
      "Check": 5195,
      "RestartOnIdle": 5196,
      "provid": 5197,
      "json": 5198,
      "provide": 5199,
      "Expand": 5200,
      "switch": 5201,
      "IAUQBC": 5202,
      "C3": 5203,
      "commonly": 5204,
      "AQQBHAFUAQQBj": 5205,
      "ority": 5206,
      "defined": 5207,
      "HardTerminate": 5208,
      "Delegation": 5209,
      "AllowHardTerminate": 5210,
      "disable": 5211,
      "e19": 5212,
      "119": 5213,
      "W64": 5214,
      "WOW64": 5215,
      "e15": 5216,
      "Open": 5217,
      "kAQQBB": 5218,
      "30T": 5219,
      "specified": 5220,
      "VQB": 5221,
      "002": 5222,
      "astruct": 5223,
      ",-,%%": 5224,
      "157": 5225,
      "Events": 5226,
      "AQQBIAEEAQQB": 5227,
      "1842": 5228,
      "kq": 5229,
      "ending": 5230,
      "eceb": 5231,
      "new_": 5232,
      "tocols": 5233,
      "SK": 5234,
      "4670": 5235,
      "ason": 5236,
      "KG": 5237,
      "spp": 5238,
      "AG0": 5239,
      "Priority": 5240,
      "T10": 5241,
      "schemas": 5242,
      "NM": 5243,
      ",,,,,,,,,,,,,,,,,,,,,,,,,,": 5244,
      "frastruct": 5245,
      ",,,,{": 5246,
      "yM": 5247,
      "left": 5248,
      "Traversal": 5249,
      "protocols": 5250,
      "YAU": 5251,
      "ild": 5252,
      "},,,,,,": 5253,
      "attern": 5254,
      "f26": 5255,
      "6e1c": 5256,
      "7c85": 5257,
      "542": 5258,
      "Ag": 5259,
      "Permissions": 5260,
      "convert": 5261,
      "fd9": 5262,
      "kAEEAQgB": 5263,
      "114": 5264,
      "YW": 5265,
      "ine_": 5266,
      "994d": 5267,
      "some": 5268,
      "acfa": 5269,
      "cw5n1h2txyewy": 5270,
      "When": 5271,
      "Private": 5272,
      "CN": 5273,
      "urred": 5274,
      "occurred": 5275,
      "7b74": 5276,
      "de994d": 5277,
      "679de994d": 5278,
      "6e1c7c85": 5279,
      "679de994d083": 5280,
      "12288": 5281,
      "Attr": 5282,
      "Direction": 5283,
      "Breakpoint": 5284,
      "Desktop": 5285,
      "744": 5286,
      "ank": 5287,
      "aAFEAQgB5": 5288,
      ",,,,,,,,,,,,,,,,,,,,,,,,,,,,,,,,,,,,,,,,,": 5289,
      "NetworkAvailable": 5290,
      "environment": 5291,
      "off": 5292,
      "mediate": 5293,
      "wF": 5294,
      "30T09": 5295,
      "123": 5296,
      "Embedding": 5297,
      "_cw5n1h2txyewy": 5298,
      "qG": 5299,
      "Elevated": 5300,
      "intermediate": 5301,
      "identifier": 5302,
      "blank": 5303,
      "icip": 5304,
      "kind": 5305,
      "detailed": 5306,
      "among": 5307,
      "particip": 5308,
      "originated": 5309,
      "participated": 5310,
      "226": 5311,
      "RONI": 5312,
      "CHRONI": 5313,
      "SYNCHRONI": 5314,
      "SYNCHRONIZE": 5315,
      "impersonate": 5316,
      "\"\"].": 5317,
      "AGcAQgB6": 5318,
      "whom": 5319,
      "extent": 5320,
      "subject": 5321,
      "impersonation": 5322,
      "correlate": 5323,
      "Interface": 5324,
      "https": 5325,
      "frastructure": 5326,
      "rm": 5327,
      "achine": 5328,
      "AHcAQQBnAEEAR": 5329,
      "Warning": 5330,
      "147": 5331,
      "c800": 5332,
      "ad1": 5333,
      "C9": 5334,
      "semaphore": 5335,
      "B7": 5336,
      "gAQQBk": 5337,
      "RunLevel": 5338,
      "StartWhen": 5339,
      "StartWhenAvailable": 5340,
      "c900": 5341,
      "ifempty": 5342,
      "failifempty": 5343,
      "3AEIAMwBBAE": 5344,
      "0x20000": 5345,
      "ize": 5346,
      "WakeToRun": 5347,
      ",,,,,,{": 5348,
      "AGkAQQBHAHcAQQB": 5349,
      "cAVQBBAGMAZwBC": 5350,
      "AGkAQQBHAHcAQQBa": 5351,
      "edge": 5352,
      "b2a": 5353,
      "Duration": 5354,
      "ABF": 5355,
      "array": 5356,
      "},,,": 5357,
      "RunOnlyIfIdle": 5358,
      "_4": 5359,
      "target": 5360,
      "131": 5361,
      "acy": 5362,
      "SIb3": 5363,
      "RunOnlyIfNetworkAvailable": 5364,
      "Certificate": 5365,
      "AHcAQgB5": 5366,
      "243": 5367,
      "4417": 5368,
      "BBQU": 5369,
      "KwYBBQU": 5370,
      "qGSIb3": 5371,
      ",,,,,,,,,,,,,,,,,,,,,,,,,,,,,,,,,,,,,,,,,,,,,,": 5372,
      "PolicyStore": 5373,
      "0dHA": 5374,
      "mary": 5375,
      "EaWdp": 5376,
      "ications": 5377,
      "compiler_": 5378,
      "CG": 5379,
      "inf_l": 5380,
      ",,,,,['": 5381,
      "StartOnDemand": 5382,
      "AllowStartOnDemand": 5383,
      "RAEE": 5384,
      "21T18": 5385,
      "00000000c800": 5386,
      "size": 5387,
      "117": 5388,
      "0bd": 5389,
      "LmRpZ2l": 5390,
      "592": 5391,
      "0h": 5392,
      "BgNVH": 5393,
      "BE": 5394,
      ",(": 5395,
      "LmRpZ2ljZXJ0LmNvb": 5396,
      ")\"\"": 5397,
      "xmlns": 5398,
      "423": 5399,
      "compiler_options": 5400,
      "nal": 5401,
      "}</": 5402,
      "deb": 5403,
      "boole": 5404,
      "..-": 5405,
      "MIIB": 5406,
      "641": 5407,
      "112": 5408,
      "Render": 5409,
      "QYDVQQ": 5410,
      "ByAssociatedNetIPsec": 5411,
      "DD": 5412,
      "ffffffff": 5413,
      "atic": 5414,
      "Infrastructure": 5415,
      "netsvcs": 5416,
      "inf_loc": 5417,
      "entered": 5418,
      "sx": 5419,
      "Clo": 5420,
      "bound": 5421,
      "Qual": 5422,
      "WriteData": 5423,
      "AddFile": 5424,
      "B0": 5425,
      "4bc": 5426,
      "267": 5427,
      "IC": 5428,
      "hki": 5429,
      "G9w": 5430,
      "hkiG9w": 5431,
      "129": 5432,
      "special": 5433,
      "DQY": 5434,
      "cNM": 5435,
      "Compile": 5436,
      "dXJ": 5437,
      "FT_": 5438,
      "MSFT_": 5439,
      "ABBAEgAQQBBAG": 5440,
      "kAQQBE": 5441,
      "AEEAQwBJ": 5442,
      "AHcAQgBiAEEAR": 5443,
      "wBBAEMAZwBBAG": 5444,
      "RAEIAdQBBAEcA": 5445,
      "QBBAEkAQQBBAGsAQQBIAE0AQQBjAEEAQgBzAEEARwBrAEEAZABBAEIAZgBBAEgAQQBBAFkAUQBCAHkAQQBIAFEAQQBj": 5446,
      "gASQBBAFkAUQBC": 5447,
      "AHcAQgAwAEEASABJ": 5448,
      "OL": 5449,
      "Enumerator": 5450,
      "185": 5451,
      "Print": 5452,
      "3M": 5453,
      "UN": 5454,
      ".\"\"": 5455,
      "e18": 5456,
      "SP": 5457,
      "1cd": 5458,
      "nown": 5459,
      "El": 5460,
      "abc": 5461,
      "1ed": 5462,
      "6315": 5463,
      "00000000c900": 5464,
      "gY": 5465,
      "V1": 5466,
      "655": 5467,
      "Prv": 5468,
      "GetString": 5469,
      "21a": 5470,
      "752": 5471,
      "'],\"['": 5472,
      "932": 5473,
      "309": 5474,
      "deprecation": 5475,
      "F3": 5476,
      "pa": 5477,
      "A5": 5478,
      "lan": 5479,
      ",,,,,,,,,,,,,,,,,,,,,,,,,,,,,,,,,,,,,,,,,,,,,,,,,": 5480,
      "SeEnable": 5481,
      "DelegationPrivilege": 5482,
      "SeEnableDelegationPrivilege": 5483,
      "ait": 5484,
      "1833": 5485,
      "Authority": 5486,
      "WmiPrv": 5487,
      "Created": 5488,
      ",,,,,,,,,,,,,,,,,,,,,,,,,,,,,,,,,,,,,,,,,,,,,,,,,,,,,,,,,,,,,,,,,,,,,,,,,,,,,,,,,,,,,,,,,,,,,,,,,,,,,,,,,,,,,,,,,,,,,,,,,,,,,,,,,,,,,,,,,,,,,,,,,,,,,,,,,,,,,,,,,,,,,,,,,,,,,,,,,,,,,,,,,,,,,,,,,,,,,,,,,,,,,,,,,,,,,,,,,,,,,,,,,,,,,,,,,,,,,,,,,,,,,,,,,,,,,,,,,,,,,,,,,,,,,,,,,,,,,,,,,,,,,,,,,,,,,,,,,,,,,,,,,,,,,,,,,,,,,,,,,,,,,,,,,,,,,,,,,,,,,,,,,,,,,,,,,,,,,,,,,,,,,,,,,,,,,,,,,,,,,,,,": 5489,
      "GetEnumerator": 5490,
      "Copy": 5491,
      "Diagnostic": 5492,
      "404": 5493,
      "deprecations": 5494,
      "WmiPrvSE": 5495,
      "hive": 5496,
      "Primary": 5497,
      "lish": 5498,
      "credentials": 5499,
      "man": 5500,
      "']\",,": 5501,
      "ba3": 5502,
      "err": 5503,
      "mon": 5504,
      "mode": 5505,
      ",,-": 5506,
      "1ad": 5507,
      ",,,,,,,,,,,,,,,,,,,,,,,,,,,,,,,,,,,,,,,,,,,,,,,,,,,,,,,,,,,,,,,,,,,,,,,,,,,,,,,,,,,,,,,,,,,,,,,,,,,,,,,,,,,,,,,,,,,,,,,,,,,,,,,,,,,,,,,,,,,,,,,,,,,,,,,,": 5508,
      "parameters": 5509,
      "{$": 5510,
      "0xffffffff": 5511,
      "downlevel_31bf3856ad364e35_10": 5512,
      "f6e": 5513,
      "0xe": 5514,
      "parameter": 5515,
      "provider": 5516,
      "144": 5517,
      "Fully": 5518,
      "Qualified": 5519,
      "06b": 5520,
      "38f": 5521,
      "ig": 5522,
      "ROU": 5523,
      "1540": 5524,
      "DM": 5525,
      "363": 5526,
      "Al": 5527,
      "GU": 5528,
      ",,,,,,,,,,,{": 5529,
      "formance": 5530,
      "969": 5531,
      "Parse": 5532,
      "ZX": 5533,
      "Publish": 5534,
      "006500": 5535,
      "item": 5536,
      "Register": 5537,
      "Compil": 5538,
      "smss": 5539,
      "AQQBIAFEAQQB": 5540,
      "ected": 5541,
      "device": 5542,
      "integ": 5543,
      "Lsa": 5544,
      "GetAll": 5545,
      "mof": 5546,
      "VQB3AEIA": 5547,
      "unications": 5548,
      "Um": 5549,
      "000000001300": 5550,
      "images": 5551,
      "266": 5552,
      "0x1200a9": 5553,
      "ache": 5554,
      "d56": 5555,
      "Preference": 5556,
      "254": 5557,
      "d1bc": 5558,
      "\"\").": 5559,
      "io": 5560,
      "Search": 5561,
      "ustom": 5562,
      "ProductVersion": 5563,
      "accelerator": 5564,
      "003": 5565,
      "Failed": 5566,
      "Triggers": 5567,
      "39Z": 5568,
      "957": 5569,
      "EventID": 5570,
      "sl": 5571,
      "Mx": 5572,
      "9d234": 5573,
      "windowscomm": 5574,
      "unicationsapp": 5575,
      "windowscommunicationsapp": 5576,
      "bas": 5577,
      "pn": 5578,
      "B8": 5579,
      "Qw": 5580,
      "kAQQBCAD": 5581,
      "5c7": 5582,
      "Rendering": 5583,
      "972": 5584,
      "algorithm": 5585,
      "18Z": 5586,
      "504": 5587,
      "acts": 5588,
      ",,,,,,,,,,,,,,,,,,,,,,,,,,,,,,,,,,,,,,,,,,,,,,,,,,": 5589,
      "drivers": 5590,
      "CategoryInfo": 5591,
      "f84": 5592,
      "ErrorMessage": 5593,
      "...": 5594,
      "flo": 5595,
      "stor": 5596,
      "9146": 5597,
      "657": 5598,
      "ScriptStackTrace": 5599,
      "eb85": 5600,
      "_pattern": 5601,
      "compile_parameters": 5602,
      "B9": 5603,
      "544": 5604,
      "2abf": 5605,
      "AEY": 5606,
      ",,,,,,,,,,{": 5607,
      "efi": 5608,
      "'><": 5609,
      "ecb2a": 5610,
      "EventData": 5611,
      "EventRecord": 5612,
      "986eb85": 5613,
      "d1bc9aff": 5614,
      "RenderingInfo": 5615,
      "ecb2a986eb85": 5616,
      "EventRecordID": 5617,
      ",,,,['": 5618,
      "3048": 5619,
      "def": 5620,
      "float": 5621,
      "failmessage": 5622,
      "emptyattribute": 5623,
      "ValidateSetErrorMessage": 5624,
      "emptyattributefailmessage": 5625,
      "GX": 5626,
      "provided": 5627,
      "ForceV1": 5628,
      "lob": 5629,
      "0ff": 5630,
      "ErrorId": 5631,
      "FullyQualified": 5632,
      "FullyQualifiedErrorId": 5633,
      "AddStat": 5634,
      "AsHashtable": 5635,
      "min_os_version": 5636,
      "min_ps_version": 5637,
      "raw_obj": 5638,
      "AddStatement": 5639,
      "s_31bf3856ad364e35_10": 5640,
      "licens": 5641,
      "WMIADA": 5642,
      "WMIADAP": 5643,
      "808": 5644,
      "CESS": 5645,
      "Publisher": 5646,
      "white": 5647,
      "Performance": 5648,
      "warning": 5649,
      "cAQQBDAEEAQQB": 5650,
      "kAQQBCADcAQQBDAEEAQQB": 5651,
      "115": 5652,
      "VW": 5653,
      "Result": 5654,
      "handle": 5655,
      "Else": 5656,
      "d3d": 5657,
      "Component": 5658,
      "attempted": 5659,
      "ags": 5660,
      "bytes": 5661,
      "icket": 5662,
      "sched": 5663,
      "Q2Vyd": 5664,
      "irst": 5665,
      "DVR0": 5666,
      "over": 5667,
      "17Z": 5668,
      "MC": 5669,
      "Last": 5670,
      "197": 5671,
      "8ae": 5672,
      "JV": 5673,
      "tx": 5674,
      "C5j": 5675,
      ",,,,,,,,,,,,,,,,,": 5676,
      "connection": 5677,
      "2DQ": 5678,
      "4V4": 5679,
      "I2R": 5680,
      "PI4V4": 5681,
      "2DQPI4V4": 5682,
      "I2R2DQPI4V4": 5683,
      "av": 5684,
      "Exec": 5685,
      "\"\"\",": 5686,
      "qGSIb3DQ": 5687,
      "src": 5688,
      "oo": 5689,
      "SqGSIb3DQ": 5690,
      "BgNVBA": 5691,
      ");": 5692,
      "474": 5693,
      "sG": 5694,
      "375": 5695,
      "0dHA6Ly": 5696,
      "025": 5697,
      "BgNVB": 5698,
      "MAawBBAEkAQQBCADcAQQBDAEEAQQB": 5699,
      "LK": 5700,
      "621": 5701,
      "5kaWdp": 5702,
      "NGE": 5703,
      "parent": 5704,
      "15805": 5705,
      "instup": 5706,
      "ires": 5707,
      "Int32": 5708,
      "BC": 5709,
      "Ap": 5710,
      "2852": 5711,
      "wYDVQQ": 5712,
      "c49": 5713,
      "mit": 5714,
      "wmi": 5715,
      "enumer": 5716,
      "ferences": 5717,
      "-‎": 5718,
      "‎-‎": 5719,
      "Bgl": 5720,
      "cAR": 5721,
      "lease": 5722,
      "AEEAU": 5723,
      "onec": 5724,
      "0F": 5725,
      "AN": 5726,
      "back": 5727,
      "Reboot": 5728,
      "wMDA": 5729,
      "e141": 5730,
      "Ver": 5731,
      "0539": 5732,
      "Boot": 5733,
      "ToArray": 5734,
      "126": 5735,
      "YIKwYBBQU": 5736,
      "dns": 5737,
      "is_": 5738,
      "ata": 5739,
      "5420": 5740,
      "16Z": 5741,
      "[]": 5742,
      "Shell": 5743,
      "EQ": 5744,
      "1972": 5745,
      "you": 5746,
      "245": 5747,
      "category": 5748,
      "9F": 5749,
      "IT": 5750,
      "hkiG9w0B": 5751,
      "wMDAw": 5752,
      "6c97": 5753,
      "6bda": 5754,
      "ac8d": 5755,
      "Append": 5756,
      "eaf": 5757,
      "_raw": 5758,
      "BQA": 5759,
      "DQYJKoZIhvcNAQ": 5760,
      "bc1d": 5761,
      "AEEAV": 5762,
      "398": 5763,
      "windowscommunicationsapps_": 5764,
      "C_125": 5765,
      "AnsibleException": 5766,
      "json_raw": 5767,
      "303": 5768,
      "UNlcn": 5769,
      "Y29tL0RpZ2lDZXJ0": 5770,
      "16005": 5771,
      "windowscommunicationsapps_16005": 5772,
      "ories": 5773,
      "a631": 5774,
      "\"\",\"\"": 5775,
      "7f84": 5776,
      "Spl": 5777,
      "b0c": 5778,
      "vapi": 5779,
      "D8": 5780,
      "1ff04": 5781,
      "NzdXJ": 5782,
      "NBLmN": 5783,
      "GlnaUNlcn": 5784,
      "ative": 5785,
      "096c97": 5786,
      "d1028": 5787,
      "1321ff04": 5788,
      "1cd6bda": 5789,
      "05391321ff04": 5790,
      "ac8d1cd6bda": 5791,
      "096c97ac8d1cd6bda": 5792,
      "05391321ff04d1028": 5793,
      "AEEAWgBRAEIAegBBAE": 5794,
      "a35": 5795,
      "Location": 5796,
      "Case": 5797,
      "5a8": 5798,
      "420": 5799,
      "Join": 5800,
      "4aa9": 5801,
      "QBBAFo": 5802,
      "ArgumentList": 5803,
      "546": 5804,
      "633": 5805,
      "AHMAQQB": 5806,
      "Harddisk": 5807,
      "HarddiskVolum": 5808,
      "Setup": 5809,
      "9AD": 5810,
      "licenses": 5811,
      "bwB": 5812,
      "CS": 5813,
      ",,,,,,,,,,,,,,,,,,,,,,,,,,,,,,,,,,,,,": 5814,
      "ici": 5815,
      "5550": 5816,
      "Child": 5817,
      "_string": 5818,
      "7795": 5819,
      "defined_": 5820,
      "defined_symbols": 5821,
      "kv": 5822,
      "0fd2d": 5823,
      "67e39": 5824,
      "e197795": 5825,
      "d5667e39": 5826,
      "e1977950fd2d": 5827,
      "'},": 5828,
      "avast": 5829,
      "107": 5830,
      "Should": 5831,
      "002F00": 5832,
      "37Z": 5833,
      "etad": 5834,
      "er_31bf3856ad364e35_10": 5835,
      "WS": 5836,
      "3AEI": 5837,
      "4B": 5838,
      "bffc": 5839,
      "AnsibleModule": 5840,
      "Char": 5841,
      "2006": 5842,
      "enumerated": 5843,
      "Mapp": 5844,
      "bc32": 5845,
      "4D": 5846,
      "Objects": 5847,
      "chcp": 5848,
      "xC": 5849,
      "AGUAIAB": 5850,
      "1539": 5851,
      "3796": 5852,
      "3548": 5853,
      ",,,,,,,,,,,,,,,,,,,,,,,,,,,,,,,,,,,,,,,,,,,,,,,,,,,,,,,,,,,,,,,,,,,,,,,,,,,,,,,,,,,,,,,,,,,,,,,,,,,,": 5854,
      "Arguments": 5855,
      "Conn": 5856,
      "NGEN": 5857,
      "temp": 5858,
      "exp": 5859,
      "etadata": 5860,
      "stopped": 5861,
      ",,,\"['": 5862,
      "0E": 5863,
      "5620": 5864,
      "909": 5865,
      "Invok": 5866,
      "\\,": 5867,
      "0x00000000": 5868,
      "schedule": 5869,
      "\\??\\": 5870,
      "IAdwBC": 5871,
      "JAEEAQgB": 5872,
      "Wil": 5873,
      "532": 5874,
      "},,,,,,,,,,,": 5875,
      "EC2Launch": 5876,
      ",,,,,,,,,,,,,,,,,,,,,,,,,,,,,,,,,,,,,,": 5877,
      "4d9": 5878,
      "162": 5879,
      "reason": 5880,
      "2500": 5881,
      "]@()": 5882,
      "Timeout": 5883,
      "},,,,,": 5884,
      "right": 5885,
      "@\"\"": 5886,
      "956": 5887,
      "1820": 5888,
      "AEEAQwBBAEEATABRAEIA": 5889,
      "1620": 5890,
      "2304": 5891,
      ")')]": 5892,
      "fc5": 5893,
      "((": 5894,
      "4799": 5895,
      "PF": 5896,
      "LogonProcess": 5897,
      "ByDisplayName": 5898,
      "RegisterLogonProcess": 5899,
      "LsaRegisterLogonProcess": 5900,
      ",,,{": 5901,
      "6RS": 5902,
      "Scripts": 5903,
      "3MDV": 5904,
      "6RS3MDV": 5905,
      "Table": 5906,
      "cde": 5907,
      "enc": 5908,
      "loaded": 5909,
      "ToLower": 5910,
      "enable": 5911,
      "ru": 5912,
      "lp": 5913,
      "2ee": 5914,
      "480": 5915,
      "df4": 5916,
      "PathType": 5917,
      "Keys": 5918,
      "~~": 5919,
      "876": 5920,
      "ADgAQQB": 5921,
      "2A": 5922,
      "315": 5923,
      "Binding": 5924,
      "03f": 5925,
      "Ec2": 5926,
      "828": 5927,
      "6E": 5928,
      "5a01": 5929,
      "systemroot": 5930,
      "Method": 5931,
      "']\",{": 5932,
      "b03": 5933,
      ",,,,,,,,,,,,,,,,,,,,,,,,,,,,,,,,,,,,,,,,,,,,,,,,,,,,,,,,,,,,,,,,,,,,,,,,,,,,,,,,,,,,,,,,,,,,,,,,,,,,,,,,,,,,,,,,,,,,,,,,,,,,,,,,,,,,,,,,,,,,,,,,,,,": 5934,
      "9j": 5935,
      "MicrosoftEdgeUpdate": 5936,
      "fcc": 5937,
      "place": 5938,
      "$,,,": 5939,
      "467": 5940,
      "().": 5941,
      "Platform": 5942,
      "fx": 5943,
      "SW": 5944,
      "dd7": 5945,
      "\\(": 5946,
      "_neutral_neutral": 5947,
      "non": 5948,
      "),['": 5949,
      "ib": 5950,
      "735": 5951,
      "82b4": 5952,
      "SYNC": 5953,
      "internal": 5954,
      "TECH": 5955,
      "LABS": 5956,
      "SYNCTECH": 5957,
      "SYNCTECHLABS": 5958,
      "winlogon": 5959,
      "SM0": 5960,
      "cd22": 5961,
      "BaseNamed": 5962,
      "boolean": 5963,
      "BaseNamedObjects": 5964,
      "9a01": 5965,
      "des": 5966,
      "gQ": 5967,
      "Long": 5968,
      "ValueFrom": 5969,
      "X86": 5970,
      "928": 5971,
      "ValueFromPipeline": 5972,
      "30Z": 5973,
      "372": 5974,
      ",,,,,,,,,,,,,,,,,,,,,,,,,,,,,,,,,,,,,,,,,,,,,,,,,,,,,,,,,,,,,,,,,,,,,,,,,,,,,,,,,,,,,,,,,,,,,,,,,,,,,,,,,,,,,,,,,,,,,,,,,,,,,,,,,,,,,,,,,,,,,,,,,,,,,,,,,,,,,,,,,,,,,,,,,,,,,,,,,,,,,,,,,,,,,,,,,,,,,,,,,,,,,,,,,,,,,,,,,,,,,,,,,,,,,,,,,,,,,,,,,,,,,,,,,,,,,,,,,,,,,,,,,,,,,,,,,,,,,,,,,,,,,,,,,,,,,,,,,,,,,,,,,,,,,,,,,,,,,,,,,,,,,,,,,,,,,,,,,,,,,,,,,,,,,,,,,,,,,,,,,,,,,,,,,,,,,,,,,,,,,,,,,,,,,,,,,,,,,,,,,,,,,,,,,,,,,,,,,,,,,,,,,,,,,,,,": 5975,
      "},,,,,,,,,,,,,,,,,,,,,,,,,,,,,,,,,,,,,,,,,,,,,,,,,,,,,,,,,,,,,,,,": 5976,
      "ignor": 5977,
      "elrun": 5978,
      "attelrun": 5979,
      "compattelrun": 5980,
      "LinkDate": 5981,
      "LowerCase": 5982,
      "BinProductVersion": 5983,
      "Invoke": 5984,
      "LongPath": 5985,
      "compattelrunner": 5986,
      "LowerCaseLongPath": 5987,
      "904": 5988,
      "Delete": 5989,
      "WORD": 5990,
      "Wait": 5991,
      "OneDrive": 5992,
      "font": 5993,
      "63Z": 5994,
      "0ce": 5995,
      "join": 5996,
      "ExperienceHost": 5997,
      "targetsize": 5998,
      "aging_": 5999,
      "RF": 6000,
      "83c": 6001,
      "836": 6002,
      "Staging_": 6003,
      "WilStaging_": 6004,
      "WilStaging_02": 6005,
      "Requested": 6006,
      "@(${": 6007,
      "find": 6008,
      "1133": 6009,
      "FilterByProperty": 6010,
      "_directory": 6011,
      "working_directory": 6012,
      "_result": 6013,
      "18f": 6014,
      "Reference": 6015,
      "Include": 6016,
      "a16": 6017,
      "gBBAEIA": 6018,
      "Gh": 6019,
      "Copyright": 6020,
      "1d6": 6021,
      "Logo": 6022,
      "0x1410": 6023,
      "SU": 6024,
      "d3c": 6025,
      "0C": 6026,
      ",,,,,,,,,,,,,,,,,,,,,,,,,,,,,,,,,,,,,,,,,,,,,,,,,,,,,,,,,,,,,,,,,,,,,,,,,,,,,,,,,,,,,,,,,,,,,,,,,,,,,,,,,,,,,,,,,,,,,,,,,,,,,,,,,,,,,,,,,,,,,,,,,,,,,,,,,,,,": 6027,
      "AZwBB": 6028,
      "_output": 6029,
      "ization": 6030,
      "6720": 6031,
      "160": 6032,
      "d3b": 6033,
      "Export": 6034,
      "\",,,": 6035,
      "pack": 6036,
      "823": 6037,
      "AQQBIAHMAQQB": 6038,
      ",,,,,,,,,,,,,,,,,,,,,,,,,,,,,,,,,,,,,,,,,,,,,,,,,,,,,,,,,,,,,,,,,,,,,,,,,,,,,,,,,,,,,,,,,,,,,,,,,,,,,,,,,,,,,,,,,,,,,,,,,,,,,,,,,,,,,,,,,,,,,,,,,,,,,,,,,,,,,,,,,": 6039,
      "_neutral_neutral_cw5n1h2txyewy": 6040,
      "iI": 6041,
      ",,,,,,,,,,,,,,,,,,,,,,,,,,,,,,,,,,,,,,,,,,,,,,,,,,,,,,,,,,,,,,,": 6042,
      "344": 6043,
      "pre": 6044,
      "Cryptography": 6045,
      "sent": 6046,
      "pos": 6047,
      "19Z": 6048,
      "B5": 6049,
      "registry": 6050,
      "erval": 6051,
      ":`": 6052,
      "Desired": 6053,
      "AUQBBAGc": 6054,
      ",,,,,,,,,,,,,,,,,,,,,,,,,,,,,,,,,,,,,,,,,,,,,,,,,,,,,,": 6055,
      "0x4e": 6056,
      "_1": 6057,
      "Breakpoints": 6058,
      "472": 6059,
      "310": 6060,
      "dev": 6061,
      "sand": 6062,
      "249": 6063,
      "040000": 6064,
      "luZ": 6065,
      "aQBBAE": 6066,
      "Ah": 6067,
      "MQ": 6068,
      "MAZwBC": 6069,
      "OUT": 6070,
      "e007": 6071,
      "abc6c": 6072,
      "24Z": 6073,
      "074": 6074,
      "Ports": 6075,
      "0d80": 6076,
      "44abc6c": 6077,
      "187040000": 6078,
      "bffc0d80": 6079,
      "e0075420": 6080,
      "44abc6cbffc0d80": 6081,
      "187040000e0075420": 6082,
      "44abc6cbffc0d80187040000e0075420": 6083,
      "_bytes": 6084,
      "msg_bytes": 6085,
      "XZ": 6086,
      "Dll": 6087,
      "29d": 6088,
      "4084": 6089,
      "AQQBBAGc": 6090,
      "UA": 6091,
      "9c264": 6092,
      "impl": 6093,
      "bb2": 6094,
      "explorer": 6095,
      "C5jb20": 6096,
      "46e": 6097,
      "EaWdpQ2Vyd": 6098,
      "QBBAD": 6099,
      "oD": 6100,
      "51c": 6101,
      "936": 6102,
      "\"%%": 6103,
      "vo": 6104,
      "4286": 6105,
      "jE": 6106,
      "hy": 6107,
      "SqGSIb3DQEB": 6108,
      "sum": 6109,
      "Resources": 6110,
      "456": 6111,
      "wBBAEMAU": 6112,
      "MA0GCSqGSIb3DQEB": 6113,
      "966": 6114,
      "4c9a": 6115,
      "d000": 6116,
      "AGcAQgA": 6117,
      "\",,,,\"['": 6118,
      "588": 6119,
      "RAEEAZwBBAE": 6120,
      "7D": 6121,
      "Proxy": 6122,
      "421": 6123,
      "ax": 6124,
      "9888": 6125,
      "\",,,,,,,": 6126,
      "yy": 6127,
      "c3Vy": 6128,
      "545": 6129,
      "sd": 6130,
      "ml": 6131,
      "Custom": 6132,
      "6b07": 6133,
      "FE": 6134,
      "*,": 6135,
      "787": 6136,
      "IPC": 6137,
      "psobject": 6138,
      "ghk": 6139,
      ",,,,,,,,,,,,,,,,,,,,,,,,,,,,,,,": 6140,
      "Variables": 6141,
      "ServiceProvider": 6142,
      "ignore_": 6143,
      "Neg": 6144,
      "ten": 6145,
      "zc3Vy": 6146,
      "5kaWdpY2Vyd": 6147,
      "557": 6148,
      "CCsG": 6149,
      "CCsGAQU": 6150,
      "e36": 6151,
      "FH": 6152,
      "GCCsGAQU": 6153,
      "Nego": 6154,
      "CryptoServiceProvider": 6155,
      "0x13": 6156,
      "###": 6157,
      "variable": 6158,
      "055": 6159,
      "460e": 6160,
      "iAEEAQgBs": 6161,
      "gBBAEcAN": 6162,
      ",,,,,,,,,,,,,,,,,,,,,,,,,,,,,,,,,,,,,,,,,,,,,,,,,,,,,,,,,,,,,,,,,,,,,,,,,,,,,,,,,,,,,,,,,,,,,,,,,,,,,,,,,,,,,,,,,,,,,,,,": 6163,
      "Addresses": 6164,
      "Bglghk": 6165,
      "1ed0": 6166,
      "dE": 6167,
      "CBJ": 6168,
      "VZ": 6169,
      "ugin": 6170,
      "LOG": 6171,
      "Ty": 6172,
      "GP": 6173,
      "290": 6174,
      "BBAG": 6175,
      "wIB": 6176,
      "ec1": 6177,
      "KwYBBAG": 6178,
      "AGsAQQB": 6179,
      "7023": 6180,
      "U0h": 6181,
      "AEEASABN": 6182,
      "QTI": 6183,
      "SystemRoot": 6184,
      "console": 6185,
      "46f6": 6186,
      "results": 6187,
      "d3dy": 6188,
      "AEEARQBV": 6189,
      "MSFT_Net": 6190,
      "Results": 6191,
      "_t": 6192,
      "continue": 6193,
      "IEl": 6194,
      "31Z": 6195,
      "a54": 6196,
      "U0hBM": 6197,
      ")))": 6198,
      "Bgkq": 6199,
      "ECh": 6200,
      "1f0": 6201,
      "5379": 6202,
      "ON": 6203,
      "SA": 6204,
      "integr": 6205,
      "CQYDVQQ": 6206,
      "MQsw": 6207,
      "PC": 6208,
      "Sys": 6209,
      "8605": 6210,
      "General": 6211,
      ")</": 6212,
      "MQswCQYDVQQ": 6213,
      "encoding": 6214,
      "0d8": 6215,
      "wJV": 6216,
      "GEwJV": 6217,
      "Hand": 6218,
      "MQswCQYDVQQGEwJV": 6219,
      "6B": 6220,
      "4168": 6221,
      "llow": 6222,
      "student_d": 6223,
      "student_dadm": 6224,
      "scheduled": 6225,
      "tenance": 6226,
      "Font": 6227,
      "WCG": 6228,
      "866": 6229,
      "da01": 6230,
      "236": 6231,
      "cannot": 6232,
      "508": 6233,
      "d31c": 6234,
      "NIQTI": 6235,
      "505": 6236,
      "5a67": 6237,
      "40b": 6238,
      "307": 6239,
      "my": 6240,
      "Um9v": 6241,
      "iz": 6242,
      "WaitTimeout": 6243,
      "Dgg": 6244,
      "402a": 6245,
      "BQADgg": 6246,
      "Negoti": 6247,
      "bb18": 6248,
      "Negotiate": 6249,
      "Added": 6250,
      "path_": 6251,
      "Dom": 6252,
      "ategories": 6253,
      "e5d8": 6254,
      "aeb": 6255,
      "7c59": 6256,
      "ignore_warnings": 6257,
      "46Z": 6258,
      "DWORD": 6259,
      "AEEATwB": 6260,
      "HR0cDovL2Nyb": 6261,
      "SetString": 6262,
      "GetType": 6263,
      "Cryptographic": 6264,
      "NGen": 6265,
      "QXNzdXJ": 6266,
      "GlnaUNlcnQg": 6267,
      "dENBLmN": 6268,
      "Um9vdENBLmN": 6269,
      "95243": 6270,
      "ility": 6271,
      "6f7c59": 6272,
      "068605": 6273,
      "2c46f6": 6274,
      "eb1e7": 6275,
      "0e5a67": 6276,
      "RAEIAdgBBAEcAN": 6277,
      "2171ad": 6278,
      "e8b8eb1e7": 6279,
      "d31ca4": 6280,
      "6f7c59d31ca4": 6281,
      "068605e8b8eb1e7": 6282,
      "2c46f61a": 6283,
      "0e5a672171ad": 6284,
      "068605e8b8eb1e7e8": 6285,
      "0e5a672171ad95243": 6286,
      "12T19": 6287,
      "cd39": 6288,
      "dda": 6289,
      "_assembly": 6290,
      "436": 6291,
      "5748": 6292,
      ",,,,,,,,,['": 6293,
      "d9f": 6294,
      "Modules": 6295,
      "implified": 6296,
      "583d": 6297,
      "51d6": 6298,
      "TQBBAE": 6299,
      "UAUQBC": 6300,
      ".($": 6301,
      "bwBBAE": 6302,
      "e15e": 6303,
      "AEEARAB": 6304,
      "spl": 6305,
      "2122": 6306,
      "follow": 6307,
      "Flags": 6308,
      "pth": 6309,
      "'\"\"": 6310,
      "make": 6311,
      "AdgBBAE": 6312,
      "Depth": 6313,
      "Help": 6314,
      "232": 6315,
      "Rl": 6316,
      "996": 6317,
      "integrator": 6318,
      "Scan": 6319,
      "94c": 6320,
      "cat": 6321,
      "597": 6322,
      "A9": 6323,
      "argument": 6324,
      "AdAAg": 6325,
      "ABB": 6326,
      "alias": 6327,
      "7ff": 6328,
      "Maintenance": 6329,
      "0c8": 6330,
      ",-,,": 6331,
      "414": 6332,
      "cvt": 6333,
      "cvtres": 6334,
      "Tile": 6335,
      "CimSession": 6336,
      "0b00": 6337,
      "990": 6338,
      "48eb": 6339,
      "ac38": 6340,
      "events": 6341,
      "']\",,,,,,,,,,": 6342,
      "Content": 6343,
      "427": 6344,
      "Requ": 6345,
      "212ee": 6346,
      "948": 6347,
      "aac": 6348,
      "Advapi": 6349,
      "attr": 6350,
      "387": 6351,
      "C5": 6352,
      "tAEEAQwBBAEEAS": 6353,
      "AHQAQQBHAD": 6354,
      "AEEAQQA9AD": 6355,
      "0x3e4": 6356,
      "AEEAQQA9AD0A": 6357,
      "Machine": 6358,
      ",,,,,,,,,,,,,,,,,,,,,,,,,,,,,,,,,,,,,,,,,,,,,,,": 6359,
      "*</": 6360,
      "'>*</": 6361,
      "Interval": 6362,
      "e55bb2": 6363,
      "c68": 6364,
      "\"\".\",": 6365,
      "1F": 6366,
      "2017": 6367,
      "ebf": 6368,
      "AEEARwA0": 6369,
      "ece": 6370,
      "ob": 6371,
      "SPP": 6372,
      "path_invalid": 6373,
      "Reg": 6374,
      "CLS": 6375,
      "CLSID": 6376,
      "48fcc": 6377,
      "36e55bb2": 6378,
      "e5d848fcc": 6379,
      "e5d848fccb7f": 6380,
      "BSD": 6381,
      "4b4": 6382,
      "NU": 6383,
      "engine": 6384,
      "wBBAF": 6385,
      "099": 6386,
      "sha": 6387,
      "cARQBBAG": 6388,
      "535": 6389,
      "see": 6390,
      "188": 6391,
      "AuthorizationList": 6392,
      "Me": 6393,
      "PE": 6394,
      "Import": 6395,
      "wDQYJKoZIhvcNAQ": 6396,
      "210": 6397,
      "Note": 6398,
      "244": 6399,
      "9I": 6400,
      "HKCR": 6401,
      "17c": 6402,
      "ree": 6403,
      "20Z": 6404,
      "HT": 6405,
      "Zone": 6406,
      "Types": 6407,
      "txt": 6408,
      "38Z": 6409,
      "domain": 6410,
      "AppList": 6411,
      "AUQBBAGEAUQBC": 6412,
      "ea2": 6413,
      "LocalService": 6414,
      "lang": 6415,
      "Ret": 6416,
      "existing": 6417,
      "AGo": 6418,
      "errors": 6419,
      "f7b": 6420,
      "8d4": 6421,
      "following": 6422,
      "AC4": 6423,
      "47Z": 6424,
      "81a": 6425,
      "C2": 6426,
      "Nv": 6427,
      ":\"\"": 6428,
      "AHI": 6429,
      "Pending": 6430,
      "1637": 6431,
      "shell": 6432,
      "425": 6433,
      "integration": 6434,
      "340": 6435,
      ",,,,,,,,,,,,,,,,,,,,,,,,,,,,,,,,,,,,,,,,,,,,,,,,,,,,,,,,,,,,,,,,,,,,,,,,,,,,,,,,,,,,,,,,,,,,,,,,,,,,,,,,,,,,,,,,,,,,,,,,,,,,,,,,,,,,,,,,,,,,,,,,,,,,,,,,,,,,,,,,,,,,,,,,,,,,,,,,,,,,,,,,,,,,,,,,,,,,,,": 6436,
      "39226": 6437,
      "56838": 6438,
      "72153": 6439,
      "cmdline": 6440,
      "AEEAUQB": 6441,
      "Adapter": 6442,
      "Cult": 6443,
      "AHQAZQB": 6444,
      "Culture": 6445,
      "Split": 6446,
      "ainer": 6447,
      "enu": 6448,
      "4ed": 6449,
      "F2": 6450,
      "more": 6451,
      "AEEARwA4": 6452,
      "4da": 6453,
      "Cmd": 6454,
      "558": 6455,
      "AEEARgA": 6456,
      "env_kv": 6457,
      "ditional": 6458,
      "4fa": 6459,
      "3bc": 6460,
      "4C": 6461,
      "cServer": 6462,
      "cServer32": 6463,
      "Known": 6464,
      "management": 6465,
      "Well": 6466,
      "4ce": 6467,
      "MB": 6468,
      "gBN": 6469,
      "Vz": 6470,
      "Facts": 6471,
      "29Z": 6472,
      "Aw": 6473,
      "ugg": 6474,
      "FileCreateTime": 6475,
      "T1099": 6476,
      "135": 6477,
      "}\",,": 6478,
      "TMP": 6479,
      "15Z": 6480,
      "7ee": 6481,
      "AQwB": 6482,
      "Dynamic": 6483,
      ",,,,,,,,,,,,,,,,,,,,,,,,,,,,,,,,,,,,,,,,,,,,,,,,,,,,,,,,,,,,,,,,,,,,,,,,,,,,,,,,,,,,,,,,,,,,,,,,,,,,,,,,,,,,,,,,,,,,,,,,,,,,,,,,,,,,,,,,,,,,,,,,,,,,,,,,,,,,,,,": 6484,
      "33Z": 6485,
      "e121": 6486,
      "09f3": 6487,
      "1348": 6488,
      "wN": 6489,
      "OS": 6490,
      ",,,,,,,,,,,,,,,,,,,,,,,,,,,,,,,,,,,,,,,,,,,,": 6491,
      "1541": 6492,
      "AHUAQQBI": 6493,
      "f11": 6494,
      "21f": 6495,
      "34000000": 6496,
      "GR": 6497,
      "eting": 6498,
      "Mapped": 6499,
      "D2": 6500,
      "QAQQBBAGc": 6501,
      "707": 6502,
      "required": 6503,
      "d2d1": 6504,
      "c0a": 6505,
      "Mp": 6506,
      "634": 6507,
      "dl": 6508,
      "65536": 6509,
      "conven": 6510,
      "convenience": 6511,
      "lobal": 6512,
      "3920": 6513,
      "5376": 6514,
      "v2": 6515,
      "Compress": 6516,
      "28e": 6517,
      "708": 6518,
      "3f2": 6519,
      "ABnAEIA": 6520,
      "wininit": 6521,
      "d1c": 6522,
      "\"\"))": 6523,
      "finally": 6524,
      "9x": 6525,
      "Auto": 6526,
      "sc": 6527,
      "PSVersionTable": 6528,
      ",,,,,,,,,,,,,,,,,,,,,,,,,,,,,,,,,,,,,,,,,,,,,,,,,,,,,,,,,,,,,,,,,,,,,,,,,,,,,,,,,,,,,,,,,,,,,,,,,,,,,,,,,,,,,,,,,,,,,,,,,,,,,,,,,,,,,,,,,": 6529,
      "VOL": 6530,
      "SYSVOL": 6531,
      "Accelerator": 6532,
      "3C": 6533,
      "stream": 6534,
      "d8d2d1": 6535,
      "d029d": 6536,
      "106d029d": 6537,
      "06c09f3": 6538,
      "641f6e": 6539,
      "06b106d029d": 6540,
      "1637641f6e": 6541,
      "06c09f31637641f6e": 6542,
      "06b106d029dd8d2d1": 6543,
      "QM": 6544,
      "memory": 6545,
      "Squ": 6546,
      "22Z": 6547,
      "0xf": 6548,
      "SysWOW64": 6549,
      "paper": 6550,
      "Native": 6551,
      "server": 6552,
      "Assign": 6553,
      "Container": 6554,
      "V2": 6555,
      "bb8": 6556,
      "drive": 6557,
      ",,,,,,,,,,,,,,,,,,,,,,,,,,,,,,,,,,,,,,,,,,,,,,,,,,,,,,,,,,,,,,,,,,,,,,,,,,,,,,,,,,,,,,,,,,,,,,,,,,,,,,,,,,,,,,,,,,,,,,,,,,,,,,,,,,,,,,,,,,,,,,,": 6558,
      "Uw": 6559,
      "ju": 6560,
      "asw": 6561,
      "623": 6562,
      "=\",,,,,,,,,,,,,,,,,,,,,,,,,,,,,,,,,,,,,,,,,,,,,,,,,,,,,,,,,,,,,,,,,,,,,,,,,,,,,,,,,,,,,,,,,,,,,,,,,,,,,,,,,,,,,,,,,,,,,,,,,,,,,,,,,,,,,,,,,,,,,,,,,,,,,,,,,,,,,,,,,,,,,,,,,,,,,,,,,,,,,,,,,,,,,,,,,,,,,,": 6563,
      "OrEmpty": 6564,
      "ROUP": 6565,
      "\",,,,,": 6566,
      "api_31bf3856ad364e35_10": 6567,
      "F6": 6568,
      "SeAssign": 6569,
      "TokenPrivilege": 6570,
      "PrimaryTokenPrivilege": 6571,
      "SeAssignPrimaryTokenPrivilege": 6572,
      "ci": 6573,
      "(?": 6574,
      "2d801": 6575,
      "ModuleMember": 6576,
      "$(@": 6577,
      "980": 6578,
      "f01": 6579,
      "AEo": 6580,
      "AuditPrivilege": 6581,
      "SeAuditPrivilege": 6582,
      "621_none_": 6583,
      "define": 6584,
      "56a": 6585,
      ",,,,,,,,,,,,,,,,,,,,,,,,,,,,,,,,,,,,,,,,,,,,,,,,,,,,,,,,,,,,,,,,,,,,,,,,,,,,,,,,,,,,,,,,,,,,,,,,,,,,,,,,,,,,,,,,,,,,,,,,,,,,,,,,,,,,,,,,,,,": 6586,
      "split": 6587,
      "TypeAccelerator": 6588,
      "(?<": 6589,
      "4068": 6590,
      "Matches": 6591,
      "Enumerate": 6592,
      "TC": 6593,
      "4932": 6594,
      "348": 6595,
      "ZQAg": 6596,
      "AddScript": 6597,
      "zU": 6598,
      "parse": 6599,
      "f1d": 6600,
      "764": 6601,
      "ek": 6602,
      "stderr": 6603,
      "ols": 6604,
      "SON": 6605,
      "b45": 6606,
      "U2": 6607,
      "519": 6608,
      "JSON": 6609,
      "csv": 6610,
      "pdb": 6611,
      "gK": 6612,
      ",,,['": 6613,
      "copy": 6614,
      "References": 6615,
      "_system32": 6616,
      "ntax": 6617,
      "uY": 6618,
      "e48": 6619,
      "WORKG": 6620,
      "WORKGROUP": 6621,
      "20a": 6622,
      "functions": 6623,
      "864": 6624,
      "Nw": 6625,
      "6b5e": 6626,
      "706": 6627,
      "px": 6628,
      "istribut": 6629,
      "0a3a": 6630,
      "acd": 6631,
      "849": 6632,
      "registration": 6633,
      "@(": 6634,
      "CodeDom": 6635,
      "AAAAAAAA": 6636,
      "4M": 6637,
      "C6": 6638,
      "box": 6639,
      "Uq": 6640,
      "172": 6641,
      "())\"\"": 6642,
      "+-": 6643,
      "+(?<": 6644,
      "_accelerator": 6645,
      "PSCore": 6646,
      "type_accelerator": 6647,
      "_line_": 6648,
      "error_line_": 6649,
      "Warnings": 6650,
      "error_line_string": 6651,
      "vfs": 6652,
      "389": 6653,
      "Sec": 6654,
      "AnsibleJson": 6655,
      "AddCommand": 6656,
      "2876": 6657,
      "20330": 6658,
      "ification": 6659,
      "Args": 6660,
      "aAFEAQgAw": 6661,
      "aAFEAQgAwAEEAQwAw": 6662,
      "rience": 6663,
      "dd77b": 6664,
      "Any": 6665,
      "ProgramFiles": 6666,
      "source": 6667,
      "223": 6668,
      "ValidateNotNullOrEmpty": 6669,
      "cC": 6670,
      "Memory": 6671,
      ",,,,,,,,,,,,,,,,,,,,,,,,,,,,,,,,['": 6672,
      "already": 6673,
      "00700": 6674,
      "arg": 6675,
      "_functions": 6676,
      "AppDomain": 6677,
      "SetShould": 6678,
      "entrypoint": 6679,
      "actual_os_version": 6680,
      "actual_ps_version": 6681,
      "SetShouldExit": 6682,
      "ama": 6683,
      "1AEEARQB": 6684,
      "tection": 6685,
      "52f26": 6686,
      "YK": 6687,
      "termin": 6688,
      "aae": 6689,
      "HarddiskVolume1": 6690,
      "feature": 6691,
      "b68": 6692,
      "hel": 6693,
      "Wj": 6694,
      "TB": 6695,
      "6408": 6696,
      "StartBound": 6697,
      "StartBoundary": 6698,
      "ansibleFacts": 6699,
      "f32": 6700,
      "906": 6701,
      "uH": 6702,
      "_AC": 6703,
      "2712": 6704,
      "MQBBAE": 6705,
      "AZwBBAGs": 6706,
      "564": 6707,
      "b78": 6708,
      "006D": 6709,
      "IBAA": 6710,
      "1ac": 6711,
      "356": 6712,
      "ab89": 6713,
      "Fe": 6714,
      "9cc0": 6715,
      "ZW": 6716,
      "riencehost": 6717,
      "\",{": 6718,
      "1700": 6719,
      "AEEARwBVAEEAW": 6720,
      "iction": 6721,
      "5ce": 6722,
      "AEEAYgB3AEIA": 6723,
      "bd8": 6724,
      "runtime": 6725,
      "8bd": 6726,
      "326": 6727,
      "fmon": 6728,
      ",,,,,,,{": 6729,
      "000000001200": 6730,
      "_net": 6731,
      "6cc": 6732,
      "0t": 6733,
      "rep": 6734,
      "4816": 6735,
      "098": 6736,
      "Cle": 6737,
      "a74": 6738,
      "704": 6739,
      "5kaWdpY2VydC5jb20": 6740,
      "lr": 6741,
      "e21a": 6742,
      "WSM": 6743,
      "WSMan": 6744,
      "egBBAEcA": 6745,
      "Cache": 6746,
      "f46": 6747,
      "s_check_mode": 6748,
      "supports_check_mode": 6749,
      "c3a": 6750,
      "fd7": 6751,
      "86b7": 6752,
      "\\\\?\\": 6753,
      "class": 6754,
      "ictionary": 6755,
      "441": 6756,
      "UAOABBAG": 6757,
      "BgNVHQ": 6758,
      "4a27": 6759,
      "AQQBHAEkAQQB": 6760,
      "AHQAa": 6761,
      "f2e7": 6762,
      "nAEEAN": 6763,
      "rupt": 6764,
      "2600": 6765,
      "print": 6766,
      "ra": 6767,
      "GCCsGAQUFB": 6768,
      "0x2c": 6769,
      "ad8c": 6770,
      "MAQQBCAGw": 6771,
      "iB": 6772,
      "1AEEARQB3": 6773,
      "MAQQBCAGwAQQBIAEkAQQB": 6774,
      "AuthSet": 6775,
      "VTMR": 6776,
      "cmw": 6777,
      "egacy": 6778,
      "-,,,": 6779,
      ",,,,,,,,,,,,,,,,,,,,,,,,,,,,,,,,,,,,,,,,,,,,,,,,,,,,,,,,,,,,,,,,,,,,,,,,,,,,,,,,,,,,,,,,,,,,,,,,,,,,,,,,,,,,,,": 6780,
      "A8": 6781,
      "wYDVR0": 6782,
      "First": 6783,
      "1076": 6784,
      "945": 6785,
      "Px": 6786,
      "551": 6787,
      "assembly_path": 6788,
      "dba3": 6789,
      "JA": 6790,
      "EChM": 6791,
      "Legacy": 6792,
      "9805": 6793,
      "d72": 6794,
      "0f7": 6795,
      "occur": 6796,
      "b40b": 6797,
      "wind": 6798,
      "org": 6799,
      "118": 6800,
      "04f": 6801,
      ",,,,,,,,,,,,,,,,,,,,,,,,,,,,,,,,,,,,,,,,,,,,,,,,,,,,,,,,,,,,,,,,,,,,,,,,,,,,,,,,,,,,,,,,,,,,,,,,,,,,,,,,,,,,,,,,,,,,,,,,,,,,,,,,,,,,,,,,,,,,,,,,,,,,,,,,,,,,,": 6802,
      "},,,,,,,,,,,,,,,,,,,,,,,,,,,,,,,,,,,,,,,,,,,,,,,,,,,,,,,,,,,,,,,,,,,,,,,,,": 6803,
      "0x3e5": 6804,
      "windir": 6805,
      "12Z": 6806,
      "lA": 6807,
      ",,,,,,,,,,,,,,,,,,,,,,,,,,,,,,,,,,,,,,,,,,,,,,,,,,,,,,,,,,,,,,,,,,,,,,,,,,,,,,,,,,,,,,,,,,,,,,,,,,,,,,,,,,,,,,,,,,,,,,,,,,,,,,,,,,,,,,,,,,,,,,,,,,,,,,,,,,,,,,,,,,,,,,,,,,,,,,,,,,,,,,,,,,": 6808,
      "utility": 6809,
      "e1f1": 6810,
      "InstanceID": 6811,
      "\"\":": 6812,
      "Metadata": 6813,
      "dea4": 6814,
      "eae": 6815,
      "TwBBAE": 6816,
      "VwBBAE": 6817,
      "wAZwBB": 6818,
      "wAEEATwB": 6819,
      "BAEEAbwBBAE": 6820,
      "AcABBAEEAbwBBAE": 6821,
      "AEEAQgB2": 6822,
      "QAQQBCAG8AQQBDAEEAQQBMAFEAQgB": 6823,
      "QBBAGMAZwBCAHA": 6824,
      "iAEEARgBN": 6825,
      "JAEEAQgBiAEEARgBN": 6826,
      "Gh0dHA6Ly": 6827,
      "AEEARgAwAEEATwB": 6828,
      "nAEEANgBBAE": 6829,
      "AcABBAEEAbwBBAEo": 6830,
      "AEEARgAwAEEATwBnAEEANgBBAE": 6831,
      ",,,,,,,,,,,,,,,,,,,,,,,,,,,,,,,,,,,,,,,,,,": 6832,
      "----------------------------------------------------------------": 6833,
      "kwF": 6834,
      "Remove": 6835,
      "v1s": 6836,
      "SW5j": 6837,
      "gBhv1s": 6838,
      "U0hBMi": 6839,
      "2_none_": 6840,
      "Protection": 6841,
      "Comment": 6842,
      "setting": 6843,
      "BgkqhkiG9w0B": 6844,
      "e04": 6845,
      "Ident": 6846,
      "A7": 6847,
      "174": 6848,
      "396": 6849,
      "platform": 6850,
      "_args": 6851,
      "GA1UEC": 6852,
      "wQC": 6853,
      "AL": 6854,
      "MT": 6855,
      "2988": 6856,
      "D0": 6857,
      "1d00": 6858,
      "'}": 6859,
      ",,,,,,,,,,,,,,,,,,,,,,,,,,,,,,,,,,,,,,,,,,,,,,,,,,,,,,,,,,,,,,,,,,,": 6860,
      "SecurityDescriptor": 6861,
      "df94": 6862,
      "1ce": 6863,
      "MQswCQYDVQQGEwJVU": 6864,
      "SAFlA": 6865,
      "MA0GCWCG": 6866,
      "MA0GCWCGSAFlA": 6867,
      "jor": 6868,
      "32Z": 6869,
      "5124": 6870,
      "QueryName": 6871,
      "QueryStatus": 6872,
      "QueryResults": 6873,
      "0b9b": 6874,
      "msedge": 6875,
      "1436c": 6876,
      "adding": 6877,
      "Installer": 6878,
      "3900": 6879,
      "iAHcAQgB1": 6880,
      "pipe": 6881,
      "},,,,,,,,,,,,,,,,,,,,,,,,,,,,,,,,,,,,,,,,,,,,,,,,,,,,,,,,,,,,,,,,,,,,,,,,,,,,,,,,": 6882,
      "Ec2Config": 6883,
      "66c": 6884,
      "100657": 6885,
      "059157": 6886,
      "a8ab8": 6887,
      "dda6b5e": 6888,
      "ab8911": 6889,
      "0b9b100657": 6890,
      "059157a8ab8": 6891,
      "0b9b100657dda6b5e": 6892,
      "059157a8ab8ab8911": 6893,
      "Bytes": 6894,
      "f5d": 6895,
      "9303": 6896,
      "94c2": 6897,
      "BAQ": 6898,
      "awBBAGQAQQBBAGc": 6899,
      "d778": 6900,
      ",,,,,,,,,,,,,,,,,,,,,,,,,,,,,,,,,,,,,,,,,,,,,,,,,,,,,,,,,,,,,,,,,,,,,,,,,,,,,,,,,,,,,,,,,,,,,,,,,,,,,,,,,,,,,,,,,,,,,,,,,,,,,,,,,,,,,,,,,,,,,,,,,,,,,,,,,,,,,,,,,,,,,,,": 6901,
      "026": 6902,
      "Z2lDZXJ0": 6903,
      "Um9vdENBLmNyb": 6904,
      "Algorithm": 6905,
      "AEEASABV": 6906,
      "<?": 6907,
      "b6c": 6908,
      "Menu": 6909,
      "MainMode": 6910,
      "wer": 6911,
      "4E": 6912,
      "ared": 6913,
      "93b3": 6914,
      "541": 6915,
      "ErrorActionPreference": 6916,
      "d2a": 6917,
      "Return": 6918,
      "VM": 6919,
      "GDA": 6920,
      "27398": 6921,
      "_msg": 6922,
      "GDAW": 6923,
      "599cc": 6924,
      "d3b27398": 6925,
      "QXNzdXJl": 6926,
      "d778599cc": 6927,
      "d778599cc0bd": 6928,
      "419": 6929,
      "debug": 6930,
      ",,,,,-": 6931,
      "f5f7": 6932,
      "0x195": 6933,
      "aming": 6934,
      "1H": 6935,
      "agent": 6936,
      "48a0": 6937,
      "176": 6938,
      "1cba": 6939,
      "165e": 6940,
      "Interrupt": 6941,
      "StartupEvent": 6942,
      "NGENProcess": 6943,
      "InterruptEvent": 6944,
      "cry": 6945,
      "Errors": 6946,
      "Handler": 6947,
      "?>": 6948,
      "\"\"?>": 6949,
      "Power": 6950,
      "1E": 6951,
      "13Z": 6952,
      "Susp": 6953,
      "6f9d": 6954,
      "IgnoreNew": 6955,
      "PSCustom": 6956,
      "PSCustomObject": 6957,
      "uAEEAQQBv": 6958,
      "AQQBCAGg": 6959,
      "YwBBAG": 6960,
      "QBBAFoAQQBBAG": 6961,
      "QBBADY": 6962,
      "2B": 6963,
      "1400": 6964,
      "adapter": 6965,
      "},,,,,,,,,,": 6966,
      "8c38": 6967,
      "9f6": 6968,
      "d368": 6969,
      "7b4": 6970,
      "470": 6971,
      "4beb": 6972,
      "gro": 6973,
      "f1fa": 6974,
      "RuntimeBroker": 6975,
      "9aee": 6976,
      "910": 6977,
      "166f": 6978,
      ">\\": 6979,
      "092": 6980,
      "416": 6981,
      "aeb16": 6982,
      "59a2": 6983,
      "Unified": 6984,
      "2200f": 6985,
      "48a35": 6986,
      "8bae3": 6987,
      "771f0": 6988,
      "76ad1": 6989,
      "8b8d4": 6990,
      "7c7a0": 6991,
      "300d0": 6992,
      "5976b": 6993,
      "a74ed": 6994,
      "44c49": 6995,
      "a0c44c49": 6996,
      "166f1cba": 6997,
      "a0c44c49d368": 6998,
      "2473": 6999,
      "fac": 7000,
      "Major": 7001,
      "awBBAGIAZwBC": 7002,
      "slash": 7003,
      "Init": 7004,
      "0666": 7005,
      "prov": 7006,
      "ep": 7007,
      "now": 7008,
      "27f5": 7009,
      "90Z": 7010,
      "sk": 7011,
      "ni": 7012,
      "d50a3a": 7013,
      "b03f5f7": 7014,
      "f11d50a3a": 7015,
      "b03f5f7f11d50a3a": 7016,
      "awBBAGQAQQBBAGcAQQBEAEUAQQB": 7017,
      "icious": 7018,
      "980528f0d601": 7019,
      "11ed": 7020,
      "gi": 7021,
      "a175": 7022,
      "parent_path": 7023,
      "$,{": 7024,
      "ADD": 7025,
      "AGcAQgBs": 7026,
      "1B": 7027,
      "1077": 7028,
      "RuleId": 7029,
      "\\.": 7030,
      "N0": 7031,
      "','": 7032,
      "33b": 7033,
      "},,,,,,,,,,,,,,,,,,,,,,,,": 7034,
      "450": 7035,
      "760": 7036,
      "ref": 7037,
      "27Z": 7038,
      "aacb2": 7039,
      "9264": 7040,
      "56c": 7041,
      "TASK": 7042,
      "7bc": 7043,
      "0948": 7044,
      "web": 7045,
      "AQQBHAFkAQQB": 7046,
      "eb5": 7047,
      "JAEEAQQBv": 7048,
      "AQQBHAFkAQQBJAEEAQQBv": 7049,
      "63e": 7050,
      "GF": 7051,
      "270": 7052,
      "rary": 7053,
      "UAB": 7054,
      "1d3": 7055,
      "438": 7056,
      "512": 7057,
      "ysmain": 7058,
      "56fe": 7059,
      "4d7a": 7060,
      "pon": 7061,
      ",-,-": 7062,
      "ImageBegin": 7063,
      "WithBack": 7064,
      "Suspicious": 7065,
      "ImageBeginWithBack": 7066,
      "ImageBeginWithBackslash": 7067,
      "Operator": 7068,
      "AQQBBAFU": 7069,
      "AEEAYgB3AEI": 7070,
      "AQQBBAFUAdwBC": 7071,
      "81a7": 7072,
      "Dism": 7073,
      "_b": 7074,
      "05Z": 7075,
      "4A": 7076,
      "36c7": 7077,
      "ADEA": 7078,
      "tp": 7079,
      "cy": 7080,
      "its": 7081,
      "806": 7082,
      "AHAAQQBIAFEAQQB": 7083,
      "AFkAQQBaAFEAQgB5": 7084,
      "AGkAQQBHAHcAQQBaAFEAQQB": 7085,
      "AQQBHAEkAQQBiAEEAQgBs": 7086,
      "Del": 7087,
      "bef7b": 7088,
      "0_none_56fe": 7089,
      "1270_none_56fe": 7090,
      "990bef7b": 7091,
      "36c7990bef7b": 7092,
      "1270_none_56fe36c7990bef7b": 7093,
      "0e0": 7094,
      "IAdwBCAHUAQQB": 7095,
      ",,,,,,,,,,,,,,,,,,,,,,,,,,,,,": 7096,
      "0a81a7": 7097,
      "00000000d100": 7098,
      "f1fa83": 7099,
      "0a81a7f1fa83": 7100,
      "Addin": 7101,
      "IAbABBAEgAZ": 7102,
      "b03f5f7f11d50a3a_4": 7103,
      "0df4": 7104,
      "26c": 7105,
      "license": 7106,
      "4cec1": 7107,
      "AGwAQQBDAEEAQQB": 7108,
      "VQBBAEs": 7109,
      "bec": 7110,
      "0x28": 7111,
      ",,,,,,,,,,,,,,,,,,,,,,,,,,,,,,,,,,,,,,,,,,,,,,,,,,,,,,,,,,,,,,,,,,,,,,,,,,,,,,,,,,,,,,,,,,,,,,,,,,,,,,,,,,,,,,,,,,,,,,,,,,,,,,,,,,,,,,,,,,,,,,,,,,,,,,,,,,,,,,,,,,,,,,,,,,,,,,,,,,,,,,,,,,,,,,,,,,,,,,,,,,,,,,,,,,,,,,,,,,,,,,,,,,,,,,,,,,,,,,,,,,,,,,,,,,,,,,,,,,,,,,,,,,,,,,,,,,,,,,,,,,,,,,,,,,,,,,,,,,,,,,,,,,,,,,,,,,,,,,,,,,,,,,": 7112,
      "AME": 7113,
      "static": 7114,
      "5aed": 7115,
      "occurs": 7116,
      "0AGk": 7117,
      "3636_none_": 7118,
      "gm": 7119,
      "ingEngine": 7120,
      "3592": 7121,
      "under": 7122,
      "Tree": 7123,
      ",,,,,,,,{": 7124,
      "55d": 7125,
      "profile": 7126,
      "YAS": 7127,
      "_contrast": 7128,
      "666": 7129,
      "YASQBBAFoAUQBC": 7130,
      "ae0f7": 7131,
      "497": 7132,
      "435": 7133,
      "Io": 7134,
      "5bb": 7135,
      "3E": 7136,
      ",,,,,,,,,,,,,,,,,,,,,,,,,,,,,,,,,,,,,,,,,,,,,,,,,,,,,,,,,,,,,,,,,,,,,,,,,,,,,": 7137,
      "tc": 7138,
      "Wall": 7139,
      "[]]$": 7140,
[...]
